#pragma once

// Auto-generated from fall_cnn_qat_int8.tflite
// Lightweight CNN - QAT int8
// Flash: 16.9 KB | Inference RAM: 47.1 KB
// Accuracy: 94.78% | Fall recall: 97.63%

#include <stdint.h>

const unsigned int fall_model_len = 17344;

alignas(8) const uint8_t fall_model_data[] = {
  0x1c, 0x00, 0x00, 0x00, 0x54, 0x46, 0x4c, 0x33, 0x14, 0x00, 0x20, 0x00, 
  0x1c, 0x00, 0x18, 0x00, 0x14, 0x00, 0x10, 0x00, 0x0c, 0x00, 0x00, 0x00, 
  0x08, 0x00, 0x04, 0x00, 0x14, 0x00, 0x00, 0x00, 0x1c, 0x00, 0x00, 0x00, 
  0x80, 0x00, 0x00, 0x00, 0xd8, 0x00, 0x00, 0x00, 0x78, 0x1d, 0x00, 0x00, 
  0x88, 0x1d, 0x00, 0x00, 0xcc, 0x42, 0x00, 0x00, 0x03, 0x00, 0x00, 0x00, 
  0x01, 0x00, 0x00, 0x00, 0x04, 0x00, 0x00, 0x00, 0x3a, 0xdd, 0xff, 0xff, 
  0x0c, 0x00, 0x00, 0x00, 0x1c, 0x00, 0x00, 0x00, 0x38, 0x00, 0x00, 0x00, 
  0x0f, 0x00, 0x00, 0x00, 0x73, 0x65, 0x72, 0x76, 0x69, 0x6e, 0x67, 0x5f, 
  0x64, 0x65, 0x66, 0x61, 0x75, 0x6c, 0x74, 0x00, 0x01, 0x00, 0x00, 0x00, 
  0x04, 0x00, 0x00, 0x00, 0x9c, 0xff, 0xff, 0xff, 0x33, 0x00, 0x00, 0x00, 
  0x04, 0x00, 0x00, 0x00, 0x07, 0x00, 0x00, 0x00, 0x64, 0x65, 0x6e, 0x73, 
  0x65, 0x5f, 0x31, 0x00, 0x01, 0x00, 0x00, 0x00, 0x04, 0x00, 0x00, 0x00, 
  0x0a, 0xe3, 0xff, 0xff, 0x04, 0x00, 0x00, 0x00, 0x07, 0x00, 0x00, 0x00, 
  0x69, 0x6e, 0x70, 0x75, 0x74, 0x5f, 0x31, 0x00, 0x02, 0x00, 0x00, 0x00, 
  0x34, 0x00, 0x00, 0x00, 0x04, 0x00, 0x00, 0x00, 0xdc, 0xff, 0xff, 0xff, 
  0x36, 0x00, 0x00, 0x00, 0x04, 0x00, 0x00, 0x00, 0x13, 0x00, 0x00, 0x00, 
  0x43, 0x4f, 0x4e, 0x56, 0x45, 0x52, 0x53, 0x49, 0x4f, 0x4e, 0x5f, 0x4d, 
  0x45, 0x54, 0x41, 0x44, 0x41, 0x54, 0x41, 0x00, 0x08, 0x00, 0x0c, 0x00, 
  0x08, 0x00, 0x04, 0x00, 0x08, 0x00, 0x00, 0x00, 0x35, 0x00, 0x00, 0x00, 
  0x04, 0x00, 0x00, 0x00, 0x13, 0x00, 0x00, 0x00, 0x6d, 0x69, 0x6e, 0x5f, 
  0x72, 0x75, 0x6e, 0x74, 0x69, 0x6d, 0x65, 0x5f, 0x76, 0x65, 0x72, 0x73, 
  0x69, 0x6f, 0x6e, 0x00, 0x37, 0x00, 0x00, 0x00, 0x9c, 0x1c, 0x00, 0x00, 
  0x94, 0x1c, 0x00, 0x00, 0x80, 0x1c, 0x00, 0x00, 0x5c, 0x1c, 0x00, 0x00, 
  0x48, 0x1c, 0x00, 0x00, 0x2c, 0x1c, 0x00, 0x00, 0x10, 0x1c, 0x00, 0x00, 
  0xf4, 0x1b, 0x00, 0x00, 0xd8, 0x1b, 0x00, 0x00, 0xc0, 0x1b, 0x00, 0x00, 
  0xac, 0x1b, 0x00, 0x00, 0x8c, 0x1b, 0x00, 0x00, 0x3c, 0x1b, 0x00, 0x00, 
  0x2c, 0x0b, 0x00, 0x00, 0xfc, 0x0a, 0x00, 0x00, 0xcc, 0x0a, 0x00, 0x00, 
  0x3c, 0x0a, 0x00, 0x00, 0x1c, 0x0a, 0x00, 0x00, 0xfc, 0x09, 0x00, 0x00, 
  0xac, 0x09, 0x00, 0x00, 0x94, 0x09, 0x00, 0x00, 0x7c, 0x09, 0x00, 0x00, 
  0x74, 0x09, 0x00, 0x00, 0x3c, 0x09, 0x00, 0x00, 0x0c, 0x09, 0x00, 0x00, 
  0x04, 0x09, 0x00, 0x00, 0xfc, 0x08, 0x00, 0x00, 0xf4, 0x08, 0x00, 0x00, 
  0xec, 0x08, 0x00, 0x00, 0xe4, 0x08, 0x00, 0x00, 0xdc, 0x08, 0x00, 0x00, 
  0xd4, 0x08, 0x00, 0x00, 0xcc, 0x08, 0x00, 0x00, 0x3c, 0x07, 0x00, 0x00, 
  0x34, 0x07, 0x00, 0x00, 0x2c, 0x07, 0x00, 0x00, 0x24, 0x07, 0x00, 0x00, 
  0x1c, 0x07, 0x00, 0x00, 0x14, 0x07, 0x00, 0x00, 0x0c, 0x07, 0x00, 0x00, 
  0x04, 0x07, 0x00, 0x00, 0xfc, 0x06, 0x00, 0x00, 0xec, 0x00, 0x00, 0x00, 
  0xe4, 0x00, 0x00, 0x00, 0xdc, 0x00, 0x00, 0x00, 0xd4, 0x00, 0x00, 0x00, 
  0xcc, 0x00, 0x00, 0x00, 0xc4, 0x00, 0x00, 0x00, 0xbc, 0x00, 0x00, 0x00, 
  0xb4, 0x00, 0x00, 0x00, 0xac, 0x00, 0x00, 0x00, 0xa4, 0x00, 0x00, 0x00, 
  0x9c, 0x00, 0x00, 0x00, 0x7c, 0x00, 0x00, 0x00, 0x04, 0x00, 0x00, 0x00, 
  0x5a, 0xe4, 0xff, 0xff, 0x04, 0x00, 0x00, 0x00, 0x68, 0x00, 0x00, 0x00, 
  0x10, 0x00, 0x00, 0x00, 0x00, 0x00, 0x00, 0x00, 0x08, 0x00, 0x0e, 0x00, 
  0x08, 0x00, 0x04, 0x00, 0x08, 0x00, 0x00, 0x00, 0x10, 0x00, 0x00, 0x00, 
  0x2c, 0x00, 0x00, 0x00, 0x00, 0x00, 0x06, 0x00, 0x08, 0x00, 0x04, 0x00, 
  0x06, 0x00, 0x00, 0x00, 0x04, 0x00, 0x00, 0x00, 0x02, 0x00, 0x00, 0x00, 
  0xeb, 0x03, 0x00, 0x00, 0xd0, 0x07, 0x00, 0x00, 0x0c, 0x00, 0x18, 0x00, 
  0x14, 0x00, 0x10, 0x00, 0x0c, 0x00, 0x04, 0x00, 0x0c, 0x00, 0x00, 0x00, 
  0x2d, 0xb0, 0x3b, 0x4f, 0x1a, 0x9c, 0x3a, 0xea, 0x02, 0x00, 0x00, 0x00, 
  0x02, 0x00, 0x00, 0x00, 0x04, 0x00, 0x00, 0x00, 0x06, 0x00, 0x00, 0x00, 
  0x32, 0x2e, 0x32, 0x31, 0x2e, 0x30, 0x00, 0x00, 0xce, 0xe4, 0xff, 0xff, 
  0x04, 0x00, 0x00, 0x00, 0x10, 0x00, 0x00, 0x00, 0x31, 0x2e, 0x31, 0x34, 
  0x2e, 0x30, 0x00, 0x00, 0x00, 0x00, 0x00, 0x00, 0x00, 0x00, 0x00, 0x00, 
  0x34, 0xc0, 0xff, 0xff, 0x38, 0xc0, 0xff, 0xff, 0x3c, 0xc0, 0xff, 0xff, 
  0x40, 0xc0, 0xff, 0xff, 0x44, 0xc0, 0xff, 0xff, 0x48, 0xc0, 0xff, 0xff, 
  0x4c, 0xc0, 0xff, 0xff, 0x50, 0xc0, 0xff, 0xff, 0x54, 0xc0, 0xff, 0xff, 
  0x58, 0xc0, 0xff, 0xff, 0x12, 0xe5, 0xff, 0xff, 0x04, 0x00, 0x00, 0x00, 
  0x00, 0x06, 0x00, 0x00, 0xe7, 0x22, 0x09, 0x46, 0x0e, 0x1c, 0xea, 0xec, 
  0xf1, 0xb8, 0x01, 0xeb, 0xee, 0xdb, 0x2d, 0xda, 0xcb, 0x28, 0xe9, 0xea, 
  0xc5, 0xd3, 0x04, 0x01, 0xff, 0x0f, 0xf7, 0x1f, 0xec, 0x28, 0xd0, 0xec, 
  0x38, 0xa0, 0x1b, 0x1b, 0xfd, 0x03, 0xfb, 0x1a, 0x0b, 0x0a, 0x11, 0xed, 
  0x07, 0xfc, 0x1c, 0xc6, 0xce, 0xd4, 0xed, 0xf5, 0xed, 0xca, 0x2b, 0xc2, 
  0xe6, 0xf4, 0xdc, 0xd7, 0x0b, 0x08, 0x17, 0x14, 0x1a, 0x34, 0x2a, 0x29, 
  0xef, 0x33, 0xd0, 0xe9, 0xbe, 0xcc, 0xd1, 0xcf, 0xf0, 0xf2, 0xe3, 0xe4, 
  0x14, 0xe7, 0x23, 0xeb, 0xf1, 0xf6, 0xea, 0xf6, 0xf6, 0x0b, 0xfd, 0x1f, 
  0x2a, 0xc2, 0xef, 0xe8, 0x27, 0x00, 0xc9, 0x43, 0x29, 0x1c, 0x2b, 0x04, 
  0x1f, 0xe8, 0x07, 0x22, 0xf2, 0xff, 0xf9, 0xf5, 0xee, 0xf3, 0xe4, 0xfa, 
  0x44, 0x24, 0xf0, 0xe8, 0xdc, 0xe9, 0x13, 0xd2, 0x14, 0x25, 0xec, 0x20, 
  0xdd, 0x3a, 0x21, 0xdb, 0x5d, 0x0f, 0x17, 0x16, 0xd2, 0x3c, 0xfe, 0xf0, 
  0x0e, 0x23, 0x19, 0xbd, 0xd6, 0x0f, 0xec, 0x30, 0xda, 0x04, 0x1f, 0xf3, 
  0x1e, 0xeb, 0xeb, 0x07, 0xd6, 0x00, 0x3a, 0xf1, 0xd1, 0xf3, 0x28, 0xba, 
  0x24, 0x1e, 0xd4, 0xe0, 0xbf, 0x28, 0xb9, 0xe3, 0xda, 0xe1, 0xcb, 0xfb, 
  0x24, 0x20, 0x0e, 0x14, 0x01, 0xfc, 0xd3, 0xe1, 0x38, 0xc6, 0x22, 0xa7, 
  0xfc, 0xfb, 0xd7, 0x0c, 0x28, 0x26, 0xf4, 0x25, 0x0a, 0x24, 0xf7, 0x36, 
  0x11, 0xd6, 0xf1, 0xe9, 0x25, 0x08, 0x16, 0x45, 0xd4, 0xdf, 0xe0, 0xdb, 
  0x09, 0xdd, 0x1c, 0x05, 0xe9, 0x25, 0xeb, 0x26, 0xf4, 0x11, 0xf6, 0x19, 
  0x18, 0x16, 0xec, 0x20, 0x15, 0xf6, 0x47, 0xf7, 0x1a, 0x05, 0x1d, 0xff, 
  0x13, 0xf9, 0x2f, 0xd5, 0xf6, 0x15, 0x18, 0xd3, 0xec, 0xf4, 0xad, 0xfa, 
  0x12, 0x01, 0xe7, 0x07, 0xf2, 0x0d, 0x03, 0x63, 0x00, 0xde, 0xe3, 0xff, 
  0x0a, 0x01, 0xf5, 0xbe, 0xd6, 0x15, 0xef, 0xa6, 0xfc, 0xf6, 0xd2, 0xd6, 
  0x00, 0xff, 0x1d, 0x50, 0xe9, 0xf1, 0x8c, 0x32, 0x33, 0xe4, 0xfd, 0xdd, 
  0x08, 0xee, 0x40, 0x02, 0xe4, 0x47, 0xff, 0xbc, 0xc3, 0x02, 0xc7, 0xdb, 
  0xe5, 0x23, 0xfe, 0x23, 0xbf, 0x1d, 0x3d, 0x03, 0xc6, 0xd9, 0xf0, 0xef, 
  0x10, 0xd9, 0x16, 0x20, 0xe8, 0xec, 0xf1, 0xd8, 0x2c, 0x03, 0xdf, 0x32, 
  0x16, 0xd6, 0xff, 0xfb, 0x2d, 0x18, 0xf6, 0x1b, 0xe6, 0x0f, 0x18, 0xeb, 
  0x11, 0x05, 0xe5, 0xfa, 0x31, 0xf2, 0xff, 0xf1, 0xd2, 0x3d, 0x0f, 0x29, 
  0xe4, 0x1b, 0xed, 0x1a, 0x00, 0x1c, 0x1d, 0xf0, 0xf2, 0x38, 0xfd, 0x09, 
  0xfa, 0xec, 0x27, 0x07, 0x2f, 0xca, 0x2a, 0x24, 0x0a, 0xf8, 0x46, 0x20, 
  0xd5, 0xce, 0xfa, 0xff, 0xfa, 0x1b, 0xdc, 0xee, 0xea, 0xdb, 0xdf, 0xfc, 
  0xdf, 0x14, 0xce, 0x3b, 0xf8, 0xfc, 0x20, 0xec, 0x33, 0x0c, 0xfd, 0xc8, 
  0x31, 0xd5, 0x1b, 0xe4, 0x24, 0x0c, 0xd7, 0x2e, 0x11, 0x15, 0xce, 0xa9, 
  0x01, 0xe3, 0x39, 0xf6, 0x1d, 0x2f, 0xe4, 0xeb, 0x0a, 0xf8, 0xe3, 0x11, 
  0xf5, 0x06, 0xb9, 0xdd, 0xc9, 0x03, 0x06, 0x0a, 0xde, 0xf4, 0x29, 0x13, 
  0x3d, 0x10, 0x23, 0x2a, 0xdb, 0x00, 0x13, 0x1c, 0x1d, 0x09, 0x21, 0xeb, 
  0x19, 0xfd, 0x05, 0xe4, 0x14, 0x06, 0x0b, 0x47, 0x0f, 0xe5, 0xcc, 0xc2, 
  0xd8, 0xed, 0x11, 0xff, 0x0d, 0xe0, 0x2d, 0xdf, 0xe0, 0xd0, 0x11, 0x0f, 
  0xe7, 0x0f, 0xd9, 0xe2, 0x00, 0x23, 0xfb, 0x1c, 0x0f, 0x04, 0xe1, 0x0d, 
  0x17, 0xa0, 0x08, 0xf0, 0x05, 0x0b, 0xd8, 0x11, 0xfb, 0xdd, 0x26, 0xfe, 
  0x3b, 0x03, 0x1c, 0xcf, 0x07, 0x29, 0xfd, 0xe4, 0xf7, 0xf8, 0x09, 0x1b, 
  0xd0, 0x44, 0xec, 0x35, 0x23, 0x1a, 0xea, 0xfd, 0xef, 0xeb, 0x06, 0xd2, 
  0xf5, 0xeb, 0xe1, 0xc9, 0x17, 0x04, 0xde, 0xed, 0xc7, 0x16, 0x0c, 0x01, 
  0xfa, 0x33, 0xbc, 0xf5, 0x12, 0x0a, 0xe7, 0x02, 0x0f, 0xf2, 0x23, 0x1e, 
  0xfe, 0x04, 0x0c, 0xdd, 0xf6, 0xd9, 0x21, 0xf9, 0xe5, 0xf4, 0x3f, 0x4f, 
  0xe7, 0x2d, 0x0d, 0x07, 0x29, 0xc5, 0xc2, 0x1b, 0x18, 0x17, 0x14, 0xe0, 
  0x00, 0xc2, 0xd8, 0xe4, 0xf7, 0xdb, 0xca, 0xbb, 0xd9, 0xee, 0xe6, 0xcb, 
  0xd8, 0xcd, 0xce, 0x23, 0xec, 0x07, 0xfe, 0xf4, 0x45, 0xe4, 0xf6, 0xfa, 
  0xcb, 0xf6, 0x20, 0x46, 0x21, 0x35, 0x19, 0xc9, 0xe8, 0xfd, 0xfa, 0xfd, 
  0xf8, 0xd8, 0x02, 0xd1, 0xfb, 0xe0, 0x18, 0xec, 0xfe, 0xdc, 0x38, 0xbf, 
  0x13, 0xf3, 0x11, 0xec, 0xe5, 0x28, 0xf4, 0x0c, 0x23, 0x18, 0x15, 0xe8, 
  0xea, 0x1a, 0xf2, 0xe1, 0xde, 0xd3, 0xf2, 0x06, 0x22, 0xf0, 0xe6, 0xcf, 
  0x18, 0x4b, 0x2f, 0xe0, 0xe7, 0x25, 0xfa, 0xec, 0xfe, 0xe4, 0xe2, 0xdd, 
  0x17, 0xce, 0x1e, 0x11, 0xf8, 0x01, 0x1d, 0xf7, 0x0e, 0x14, 0x0a, 0xc8, 
  0xee, 0xfb, 0x04, 0x03, 0x0b, 0xd3, 0x0c, 0x24, 0xed, 0x00, 0x3b, 0xf9, 
  0xe8, 0xae, 0x0d, 0xd5, 0xda, 0xd7, 0x18, 0x02, 0xfe, 0x07, 0x1f, 0xf1, 
  0xfd, 0xd0, 0x16, 0xef, 0xff, 0xc5, 0xe7, 0x32, 0x08, 0xbe, 0xfa, 0xe1, 
  0x1c, 0xfa, 0x03, 0xc4, 0x13, 0xf6, 0xe3, 0xf2, 0xd5, 0xf0, 0xb6, 0xf9, 
  0xc2, 0xdf, 0x14, 0xc1, 0xc9, 0x1a, 0xff, 0xe4, 0xfd, 0x30, 0x02, 0xfd, 
  0xf8, 0xcf, 0xfd, 0xe6, 0x0f, 0xd2, 0xef, 0xd6, 0xc8, 0xdd, 0x19, 0x1d, 
  0x26, 0x04, 0x00, 0xff, 0xf7, 0xd2, 0xff, 0xf7, 0xf8, 0x18, 0xe9, 0x03, 
  0x0a, 0x30, 0x20, 0x14, 0x25, 0x1e, 0x37, 0xd1, 0x20, 0xba, 0x01, 0xec, 
  0x18, 0x08, 0x4c, 0xd8, 0xfb, 0x08, 0x14, 0x0e, 0x0d, 0xb3, 0xf6, 0xe5, 
  0x51, 0xf6, 0x08, 0x29, 0xfc, 0xe4, 0xef, 0x21, 0xc6, 0xd7, 0xff, 0xf9, 
  0xd3, 0x0e, 0xfc, 0x42, 0x29, 0xc9, 0x09, 0x2d, 0x18, 0xef, 0xe1, 0x1d, 
  0x34, 0xf8, 0xf5, 0xf0, 0xda, 0x12, 0xe7, 0xe7, 0x0e, 0x0c, 0xed, 0x3e, 
  0x0f, 0x38, 0x0e, 0x15, 0x05, 0x14, 0xe3, 0xd4, 0x08, 0x27, 0x00, 0x05, 
  0x1f, 0x08, 0x21, 0xfb, 0xe2, 0x09, 0xd7, 0x04, 0x14, 0xf3, 0xe6, 0xe6, 
  0xed, 0x01, 0xfc, 0xe9, 0x0d, 0x19, 0xfe, 0x25, 0x18, 0x0f, 0xe7, 0x08, 
  0x22, 0xf6, 0x0f, 0x29, 0x13, 0xeb, 0xf3, 0xf6, 0x29, 0xf4, 0x0c, 0xde, 
  0x0e, 0x02, 0xe3, 0xee, 0x0b, 0xcc, 0xe8, 0x06, 0xd0, 0xef, 0xe2, 0xfe, 
  0xe8, 0x38, 0xcc, 0x38, 0x1f, 0x12, 0xfe, 0xdb, 0xd5, 0xf6, 0xf0, 0x24, 
  0xdd, 0x0e, 0xe6, 0xe7, 0xdc, 0x15, 0xe6, 0x19, 0x11, 0xe1, 0x1a, 0xec, 
  0xe0, 0xf9, 0x07, 0xf9, 0x15, 0xc2, 0xcc, 0x3b, 0xf4, 0x07, 0xf5, 0xaf, 
  0xb6, 0xfa, 0x1d, 0x00, 0x0a, 0x2a, 0x1a, 0xea, 0xe2, 0xed, 0x18, 0xf6, 
  0xeb, 0xf3, 0x4f, 0xf8, 0x21, 0x10, 0xee, 0x10, 0xfd, 0x3a, 0xc0, 0xea, 
  0xdc, 0xff, 0x15, 0x19, 0x0e, 0xe8, 0x0b, 0xeb, 0x03, 0xba, 0x37, 0x07, 
  0xfd, 0x20, 0x1c, 0xec, 0xf9, 0x26, 0x16, 0xbb, 0xf0, 0xcd, 0xa1, 0xdd, 
  0xba, 0xe9, 0xd4, 0x13, 0xf7, 0xe4, 0xfe, 0xee, 0xf2, 0x2b, 0xf7, 0x0b, 
  0x0a, 0xf8, 0xee, 0x13, 0x01, 0xe3, 0xe1, 0xfc, 0x28, 0xde, 0x01, 0xd9, 
  0x25, 0xea, 0x09, 0xe7, 0xe2, 0xe6, 0xde, 0xb1, 0xf2, 0xe3, 0x0f, 0x23, 
  0xf2, 0xe7, 0x27, 0xe6, 0x15, 0xea, 0x01, 0xed, 0x30, 0x02, 0xfc, 0x47, 
  0x0c, 0x10, 0xfb, 0xeb, 0xd4, 0x24, 0x29, 0xff, 0x0a, 0x0b, 0x01, 0x3d, 
  0x37, 0x0f, 0xf7, 0x5c, 0xe0, 0x04, 0xfa, 0xfa, 0x14, 0x28, 0xd7, 0x0a, 
  0xc3, 0x3c, 0x11, 0xf8, 0x9d, 0x20, 0xe2, 0xce, 0xd4, 0xf4, 0xe8, 0x07, 
  0x02, 0x08, 0xfc, 0x0e, 0x2a, 0x13, 0xdb, 0xe4, 0xd5, 0xed, 0x1d, 0xaf, 
  0xe1, 0x31, 0xfe, 0xfd, 0xc8, 0xea, 0xc6, 0x16, 0xe0, 0x04, 0x16, 0x0e, 
  0x03, 0x25, 0x25, 0x39, 0xf9, 0xe8, 0x3e, 0xd5, 0xbc, 0xe4, 0x35, 0x0c, 
  0xe0, 0xcc, 0x1c, 0x02, 0xf8, 0xcc, 0xeb, 0x2e, 0x0e, 0x09, 0x15, 0xfd, 
  0x17, 0xf3, 0xff, 0xc0, 0xb8, 0x04, 0x17, 0x02, 0x2c, 0xf8, 0x33, 0x0e, 
  0x04, 0x11, 0xf1, 0xf2, 0x38, 0xdd, 0x1a, 0x0f, 0xd5, 0xaa, 0xcc, 0xe8, 
  0xdf, 0x0f, 0xd5, 0x30, 0xff, 0xf3, 0x23, 0x0b, 0xf8, 0xf0, 0xfc, 0xde, 
  0x04, 0x0e, 0x0d, 0x23, 0x80, 0xc7, 0x13, 0x21, 0x24, 0x09, 0xfc, 0xe6, 
  0x25, 0x33, 0xbf, 0xc5, 0xef, 0xf7, 0xfe, 0xfa, 0xd1, 0xd7, 0xf7, 0x26, 
  0xe4, 0x00, 0x2b, 0xda, 0xac, 0xd9, 0x1b, 0x15, 0x44, 0x18, 0x11, 0x0d, 
  0x04, 0xd1, 0x06, 0x38, 0xf3, 0xeb, 0x29, 0x33, 0xbd, 0xe2, 0xf5, 0xec, 
  0x2f, 0x44, 0xee, 0xbb, 0x00, 0xfb, 0x24, 0x33, 0xff, 0xfb, 0x0c, 0xbf, 
  0x1e, 0xeb, 0x08, 0xeb, 0xe4, 0x14, 0x08, 0x19, 0xf2, 0x10, 0xed, 0x2b, 
  0xf9, 0x18, 0x08, 0xec, 0x95, 0x14, 0x00, 0xcd, 0x02, 0x28, 0xf9, 0xc9, 
  0x29, 0x0a, 0xf7, 0xc7, 0xff, 0xb7, 0xfd, 0xe4, 0xf3, 0x03, 0x01, 0xd0, 
  0xe8, 0x0f, 0xe2, 0xee, 0x12, 0x19, 0xe1, 0x15, 0xed, 0x25, 0xfb, 0x2e, 
  0xec, 0x03, 0xe7, 0x04, 0x47, 0x00, 0x06, 0x00, 0xdd, 0xc8, 0x36, 0xe2, 
  0x11, 0xd4, 0x11, 0xec, 0x1d, 0xfd, 0x06, 0xe4, 0xeb, 0xb6, 0xeb, 0xdb, 
  0x0f, 0x04, 0xe8, 0x5e, 0x21, 0x1f, 0xd8, 0xe4, 0x0e, 0x1c, 0xcf, 0x28, 
  0xf6, 0x10, 0x01, 0xd1, 0x09, 0x21, 0x38, 0xcd, 0xf9, 0xd3, 0x05, 0xaa, 
  0x20, 0xd4, 0xf1, 0x08, 0xde, 0x30, 0xbc, 0x0d, 0xcc, 0xf7, 0xb6, 0x22, 
  0x0e, 0x1f, 0xf8, 0x30, 0x05, 0x23, 0x11, 0x07, 0xe2, 0x1a, 0x39, 0xd5, 
  0x0a, 0xf6, 0x1d, 0xdf, 0xe3, 0x10, 0x2c, 0x06, 0x06, 0xea, 0xe4, 0x2a, 
  0xee, 0xfc, 0xf1, 0x13, 0xd9, 0x11, 0xe0, 0x1d, 0xe0, 0x9e, 0x20, 0xf9, 
  0x0c, 0x09, 0x11, 0xdb, 0xfb, 0x30, 0xdd, 0xf5, 0xe5, 0x38, 0x0c, 0xc6, 
  0xf1, 0x24, 0xef, 0x12, 0xfb, 0x9e, 0x06, 0x19, 0x00, 0x0c, 0x3c, 0xd7, 
  0xeb, 0x29, 0xe2, 0xb9, 0x17, 0xf4, 0xd3, 0xca, 0xc0, 0x00, 0xd7, 0xf5, 
  0xd5, 0x0a, 0xe5, 0xf4, 0x17, 0x0b, 0x29, 0x38, 0xf9, 0xd1, 0x18, 0xec, 
  0xc5, 0x16, 0x08, 0xd9, 0xda, 0x0b, 0x01, 0x21, 0x1f, 0xed, 0x01, 0xec, 
  0x2d, 0x05, 0x2b, 0xf0, 0x16, 0x26, 0xef, 0xe4, 0x14, 0xf8, 0x2c, 0xf7, 
  0x23, 0x06, 0x52, 0xf9, 0xe9, 0xe1, 0x00, 0xfa, 0x13, 0x23, 0x06, 0xfb, 
  0xe6, 0xf8, 0xf2, 0xcf, 0x18, 0xee, 0xbc, 0x06, 0xd6, 0xcf, 0x1a, 0xf5, 
  0x06, 0x2a, 0xe2, 0xcd, 0xdc, 0xcd, 0x17, 0xe7, 0x02, 0x16, 0xfd, 0xe3, 
  0xe6, 0xae, 0x9d, 0xf0, 0x05, 0xac, 0x18, 0xf6, 0x13, 0x02, 0xf6, 0x00, 
  0xd4, 0xf0, 0x13, 0x14, 0xf6, 0x13, 0xec, 0xfc, 0x11, 0x0e, 0xf4, 0x1e, 
  0x23, 0x2b, 0x2e, 0x08, 0xd9, 0xd6, 0x1e, 0xdf, 0xe9, 0xc5, 0xc6, 0xb6, 
  0x26, 0xfe, 0x1d, 0xe2, 0xb3, 0x26, 0xf7, 0xae, 0xcb, 0xf8, 0x1d, 0xdd, 
  0x1b, 0x0b, 0x12, 0xe1, 0xee, 0x05, 0xf8, 0x28, 0xfe, 0xf7, 0xee, 0xc1, 
  0x01, 0xd1, 0x00, 0x13, 0xf1, 0xd1, 0x1f, 0xac, 0x0e, 0x27, 0xc5, 0x09, 
  0xc8, 0xe5, 0xd4, 0x23, 0x3e, 0x2e, 0x01, 0x08, 0x14, 0x1b, 0xf8, 0x20, 
  0xf7, 0xd7, 0xeb, 0xc7, 0xd5, 0xc5, 0x24, 0x06, 0x2d, 0xf6, 0x23, 0xdb, 
  0xf0, 0x06, 0xf2, 0xe8, 0x0e, 0xd7, 0xe5, 0x0e, 0xeb, 0xff, 0xef, 0x99, 
  0x26, 0x08, 0x2f, 0x01, 0x68, 0xc6, 0xff, 0xff, 0x6c, 0xc6, 0xff, 0xff, 
  0x70, 0xc6, 0xff, 0xff, 0x74, 0xc6, 0xff, 0xff, 0x78, 0xc6, 0xff, 0xff, 
  0x7c, 0xc6, 0xff, 0xff, 0x80, 0xc6, 0xff, 0xff, 0x84, 0xc6, 0xff, 0xff, 
  0x3e, 0xeb, 0xff, 0xff, 0x04, 0x00, 0x00, 0x00, 0x80, 0x01, 0x00, 0x00, 
  0xee, 0x4e, 0x0c, 0xe2, 0xc4, 0xc9, 0x23, 0x08, 0x1b, 0x47, 0x9a, 0xd8, 
  0xf7, 0xdd, 0xe9, 0xc7, 0x64, 0x3f, 0x01, 0x20, 0xe7, 0xc3, 0xce, 0xfb, 
  0xc2, 0x22, 0xd8, 0xdf, 0x09, 0x27, 0xc9, 0x39, 0xe2, 0x01, 0xd2, 0xb7, 
  0xfc, 0x09, 0x0f, 0x48, 0x44, 0xe5, 0xb8, 0x84, 0xc0, 0xe3, 0x2c, 0x16, 
  0xab, 0xfa, 0xfc, 0x8c, 0x80, 0x25, 0x11, 0x08, 0x06, 0x12, 0x06, 0xcd, 
  0x4d, 0x17, 0x1f, 0xfa, 0xf0, 0xe8, 0x03, 0xc3, 0xbc, 0x40, 0xbf, 0x29, 
  0x7a, 0xf3, 0x3f, 0xe0, 0xfd, 0x06, 0x50, 0x0a, 0x17, 0xbb, 0xd8, 0xca, 
  0xf7, 0x43, 0xbe, 0xdd, 0x0b, 0xf0, 0xf0, 0x1f, 0x33, 0x22, 0x56, 0x03, 
  0x98, 0xd9, 0xaa, 0x20, 0xdb, 0xd1, 0x14, 0xd0, 0xcd, 0xe6, 0x3e, 0xe5, 
  0xee, 0x29, 0x43, 0xb6, 0x14, 0x26, 0xeb, 0xf3, 0xe4, 0x16, 0x03, 0x38, 
  0xb2, 0xb2, 0xce, 0xfd, 0xd8, 0xb8, 0x10, 0xb2, 0x00, 0xef, 0x0a, 0x54, 
  0xcb, 0x0e, 0x26, 0x4d, 0xdf, 0x28, 0x19, 0x26, 0xa5, 0xd6, 0x57, 0x16, 
  0xc0, 0x0e, 0xb1, 0xfb, 0x6c, 0xcc, 0xa2, 0xda, 0x02, 0x20, 0xe4, 0xc0, 
  0xdd, 0x2c, 0xf1, 0xc7, 0x11, 0xbf, 0x22, 0xfd, 0x03, 0x3c, 0xdf, 0xe6, 
  0x09, 0x1a, 0xd7, 0xf4, 0xc0, 0xcc, 0xea, 0xf2, 0xc8, 0xfa, 0xc7, 0xd1, 
  0x9e, 0x07, 0x0c, 0x44, 0x3a, 0xe4, 0x4a, 0x35, 0x2f, 0x26, 0x27, 0x52, 
  0xf4, 0x3e, 0xff, 0xf1, 0x5d, 0x2a, 0xf6, 0xc7, 0xef, 0xd2, 0xdd, 0x36, 
  0xe9, 0xed, 0x1c, 0xf6, 0xa1, 0x1c, 0xe4, 0xe9, 0x2d, 0xad, 0x47, 0x20, 
  0x2e, 0xcf, 0xe1, 0x04, 0xe5, 0x1e, 0xc9, 0x10, 0x1f, 0xfc, 0x2a, 0x1c, 
  0x3e, 0xd8, 0x29, 0xe2, 0xcc, 0xc0, 0xda, 0xb9, 0xc2, 0xa9, 0x29, 0xe7, 
  0x18, 0xf9, 0x27, 0xd9, 0xe5, 0xb3, 0xe6, 0xf0, 0xf3, 0x1f, 0x23, 0x8b, 
  0x0b, 0x0a, 0x06, 0x2e, 0x07, 0x16, 0xf0, 0xdc, 0x56, 0xfc, 0xcb, 0x2e, 
  0xb3, 0x20, 0x07, 0x9c, 0x3e, 0xa0, 0xd9, 0xef, 0xc4, 0xd9, 0x13, 0xde, 
  0xb4, 0xd7, 0xb0, 0xd0, 0x23, 0x38, 0x04, 0x21, 0x01, 0x42, 0x43, 0x1f, 
  0x53, 0x2e, 0xf4, 0xf2, 0xe4, 0x44, 0xc5, 0x24, 0xdb, 0xdf, 0xe4, 0x18, 
  0xcc, 0x3f, 0xfd, 0x49, 0x1c, 0x23, 0xd9, 0x94, 0xd8, 0xe6, 0xdc, 0xfe, 
  0xc3, 0x51, 0xcc, 0x30, 0x00, 0x45, 0x01, 0x04, 0xd8, 0xb9, 0x25, 0xb4, 
  0x22, 0xed, 0x00, 0xc7, 0x2d, 0x54, 0x1a, 0x40, 0xef, 0x09, 0x2a, 0xf7, 
  0xe3, 0xbe, 0xed, 0xed, 0x3f, 0x58, 0x4d, 0x12, 0x36, 0x47, 0x01, 0x12, 
  0xcd, 0xff, 0x07, 0x34, 0xa8, 0xfa, 0xfb, 0xe2, 0xfd, 0xb7, 0x0d, 0xfa, 
  0x62, 0xf5, 0xe7, 0x23, 0xf6, 0x10, 0x0e, 0x2c, 0x59, 0xfc, 0x30, 0x1f, 
  0xcf, 0x18, 0x3b, 0x41, 0xfb, 0xca, 0x2b, 0x55, 0xe0, 0x43, 0x54, 0xe5, 
  0x14, 0xc8, 0xff, 0xff, 0x18, 0xc8, 0xff, 0xff, 0x1c, 0xc8, 0xff, 0xff, 
  0x20, 0xc8, 0xff, 0xff, 0x24, 0xc8, 0xff, 0xff, 0x28, 0xc8, 0xff, 0xff, 
  0x2c, 0xc8, 0xff, 0xff, 0x30, 0xc8, 0xff, 0xff, 0xea, 0xec, 0xff, 0xff, 
  0x04, 0x00, 0x00, 0x00, 0x20, 0x00, 0x00, 0x00, 0xde, 0x03, 0x00, 0x00, 
  0xc5, 0x04, 0x00, 0x00, 0x18, 0x04, 0x00, 0x00, 0x8a, 0x02, 0x00, 0x00, 
  0x0e, 0x00, 0x00, 0x00, 0x36, 0x06, 0x00, 0x00, 0x59, 0x01, 0x00, 0x00, 
  0x79, 0x00, 0x00, 0x00, 0x16, 0xed, 0xff, 0xff, 0x04, 0x00, 0x00, 0x00, 
  0x28, 0x00, 0x00, 0x00, 0xb0, 0x31, 0xe8, 0x1a, 0x27, 0xed, 0x3b, 0xd0, 
  0xe0, 0xc5, 0xcd, 0xc3, 0x0a, 0xbd, 0x23, 0x38, 0x18, 0x25, 0xd1, 0xbb, 
  0x00, 0x80, 0xc0, 0x11, 0x09, 0x4c, 0x0c, 0xc1, 0x0c, 0x0b, 0x81, 0xf3, 
  0x03, 0x00, 0x01, 0x42, 0x10, 0x3a, 0x24, 0xb1, 0x94, 0xc8, 0xff, 0xff, 
  0x4e, 0xed, 0xff, 0xff, 0x04, 0x00, 0x00, 0x00, 0x08, 0x00, 0x00, 0x00, 
  0x4d, 0x38, 0x3d, 0x4a, 0x51, 0x3a, 0x50, 0x7f, 0x62, 0xed, 0xff, 0xff, 
  0x04, 0x00, 0x00, 0x00, 0x08, 0x00, 0x00, 0x00, 0xc8, 0x80, 0xb3, 0xfd, 
  0x1f, 0x89, 0xff, 0x37, 0x76, 0xed, 0xff, 0xff, 0x04, 0x00, 0x00, 0x00, 
  0x40, 0x00, 0x00, 0x00, 0xee, 0xfe, 0xff, 0xff, 0x6f, 0xfe, 0xff, 0xff, 
  0x9f, 0x01, 0x00, 0x00, 0x9e, 0xfe, 0xff, 0xff, 0x1d, 0x03, 0x00, 0x00, 
  0x14, 0x00, 0x00, 0x00, 0x18, 0x02, 0x00, 0x00, 0x1f, 0x02, 0x00, 0x00, 
  0xea, 0xfb, 0xff, 0xff, 0x3f, 0x02, 0x00, 0x00, 0xd7, 0x00, 0x00, 0x00, 
  0xe1, 0x02, 0x00, 0x00, 0x53, 0xff, 0xff, 0xff, 0x80, 0xfd, 0xff, 0xff, 
  0x51, 0xfc, 0xff, 0xff, 0xac, 0xff, 0xff, 0xff, 0xc2, 0xed, 0xff, 0xff, 
  0x04, 0x00, 0x00, 0x00, 0x10, 0x00, 0x00, 0x00, 0x0a, 0xef, 0xce, 0x8d, 
  0xf1, 0xb5, 0x7f, 0x95, 0x97, 0xfc, 0xad, 0x1b, 0x96, 0x96, 0x9c, 0x8c, 
  0xde, 0xed, 0xff, 0xff, 0x04, 0x00, 0x00, 0x00, 0x10, 0x00, 0x00, 0x00, 
  0x77, 0x69, 0x5d, 0x10, 0x7c, 0x70, 0x7e, 0x4d, 0x4e, 0x72, 0x6f, 0x7f, 
  0x55, 0x3e, 0x41, 0x80, 0xfa, 0xed, 0xff, 0xff, 0x04, 0x00, 0x00, 0x00, 
  0x80, 0x00, 0x00, 0x00, 0x08, 0x02, 0x00, 0x00, 0xcd, 0xff, 0xff, 0xff, 
  0x51, 0x01, 0x00, 0x00, 0xf9, 0xff, 0xff, 0xff, 0x92, 0x01, 0x00, 0x00, 
  0x8b, 0xfe, 0xff, 0xff, 0x46, 0x00, 0x00, 0x00, 0x6f, 0x00, 0x00, 0x00, 
  0x3b, 0xff, 0xff, 0xff, 0x79, 0xff, 0xff, 0xff, 0xbf, 0x01, 0x00, 0x00, 
  0x5f, 0x00, 0x00, 0x00, 0x5a, 0xff, 0xff, 0xff, 0x99, 0x00, 0x00, 0x00, 
  0x31, 0xff, 0xff, 0xff, 0x89, 0xff, 0xff, 0xff, 0xe3, 0xff, 0xff, 0xff, 
  0x85, 0xff, 0xff, 0xff, 0x73, 0x00, 0x00, 0x00, 0x94, 0x00, 0x00, 0x00, 
  0x55, 0xfe, 0xff, 0xff, 0x75, 0xff, 0xff, 0xff, 0x0c, 0x01, 0x00, 0x00, 
  0x13, 0xff, 0xff, 0xff, 0xb7, 0xfd, 0xff, 0xff, 0x5c, 0x00, 0x00, 0x00, 
  0xa6, 0x00, 0x00, 0x00, 0x32, 0xff, 0xff, 0xff, 0x58, 0xff, 0xff, 0xff, 
  0x87, 0x00, 0x00, 0x00, 0x2f, 0x01, 0x00, 0x00, 0x23, 0x00, 0x00, 0x00, 
  0x86, 0xee, 0xff, 0xff, 0x04, 0x00, 0x00, 0x00, 0x20, 0x00, 0x00, 0x00, 
  0xf3, 0x2f, 0xa9, 0x1d, 0xad, 0x32, 0x5a, 0xb1, 0xd7, 0x0d, 0xe1, 0xfa, 
  0xbf, 0xd3, 0x7f, 0xb2, 0xbf, 0x07, 0xf3, 0xe5, 0xfc, 0x06, 0xe8, 0x05, 
  0x08, 0x5a, 0xe1, 0xe1, 0xb8, 0x49, 0xf5, 0xbc, 0xb2, 0xee, 0xff, 0xff, 
  0x04, 0x00, 0x00, 0x00, 0x20, 0x00, 0x00, 0x00, 0x80, 0x51, 0xf3, 0x4e, 
  0xa4, 0x5a, 0x52, 0xcf, 0x5b, 0x59, 0xdb, 0x54, 0x3a, 0x40, 0x67, 0x16, 
  0x39, 0x37, 0x53, 0x40, 0x3c, 0x01, 0x48, 0x50, 0x4d, 0x62, 0x22, 0x1e, 
  0x1e, 0x68, 0x41, 0x36, 0xde, 0xee, 0xff, 0xff, 0x04, 0x00, 0x00, 0x00, 
  0x00, 0x10, 0x00, 0x00, 0xf2, 0xb2, 0xf3, 0xc9, 0xd4, 0x01, 0xe4, 0x0d, 
  0xef, 0x2d, 0xac, 0x2a, 0x1b, 0xe4, 0xd3, 0xd8, 0x07, 0xfe, 0x27, 0xdc, 
  0x19, 0x23, 0xe3, 0x05, 0x31, 0xb9, 0xdc, 0xff, 0x36, 0xea, 0x25, 0xec, 
  0xb3, 0xe4, 0xab, 0x0e, 0xb3, 0x3c, 0x15, 0xc0, 0xe6, 0x07, 0xf2, 0x1b, 
  0xd7, 0xe9, 0x15, 0xf3, 0xd3, 0xda, 0xa5, 0xbb, 0xde, 0xd9, 0xff, 0xff, 
  0xd9, 0xf0, 0x08, 0x1e, 0xf0, 0xfb, 0xdf, 0xf1, 0xc0, 0xdc, 0xc6, 0xff, 
  0x0e, 0xee, 0x0b, 0xc0, 0xf1, 0x1f, 0x2b, 0xf0, 0xe1, 0xed, 0xfb, 0x14, 
  0xf3, 0xeb, 0xbb, 0x06, 0xd7, 0xea, 0xe4, 0xf0, 0x15, 0x13, 0x10, 0x07, 
  0x10, 0xea, 0xf5, 0xf0, 0xbf, 0xd8, 0xc1, 0x28, 0x01, 0xf1, 0x06, 0xe7, 
  0xf5, 0xff, 0xf9, 0xe1, 0xfb, 0xff, 0x22, 0xf3, 0xf6, 0xd7, 0xb2, 0xff, 
  0x0e, 0x1e, 0x0a, 0x03, 0x11, 0xe9, 0x05, 0xe7, 0x05, 0x07, 0xdd, 0xe2, 
  0xdb, 0xfc, 0xf3, 0x32, 0x32, 0xf7, 0x13, 0xeb, 0x27, 0xf9, 0x06, 0x23, 
  0xf7, 0x0e, 0x1b, 0x11, 0x10, 0xea, 0xa6, 0x04, 0xe7, 0xed, 0x26, 0x18, 
  0x21, 0xf3, 0x07, 0xf0, 0xef, 0xea, 0x0f, 0x21, 0xaa, 0xd7, 0xe2, 0xec, 
  0x08, 0xf9, 0x11, 0xea, 0xf9, 0xfb, 0xde, 0x00, 0x03, 0xe9, 0x0c, 0xf4, 
  0x05, 0x0d, 0xf1, 0xfd, 0xca, 0x18, 0xec, 0xf0, 0x1d, 0x0c, 0x0b, 0xd7, 
  0xeb, 0x08, 0xe2, 0x05, 0xe1, 0xed, 0x9f, 0x10, 0x0d, 0xe2, 0x0d, 0x9d, 
  0xf4, 0xe2, 0x2e, 0x14, 0x18, 0xde, 0x1b, 0x0b, 0xf9, 0xd0, 0xdc, 0xd6, 
  0xe0, 0xc9, 0xfc, 0x06, 0x22, 0xd8, 0xe0, 0xe5, 0xd1, 0xe6, 0xfd, 0xeb, 
  0xe3, 0xd6, 0xd2, 0x22, 0xe1, 0xb5, 0x19, 0x27, 0xff, 0xfb, 0xed, 0x0a, 
  0xbd, 0xda, 0x3a, 0x23, 0x14, 0xf3, 0x81, 0xaf, 0xec, 0xc3, 0xf5, 0x0f, 
  0xfa, 0xae, 0x16, 0x38, 0x1d, 0xc2, 0xf4, 0x0b, 0x1c, 0xfb, 0xed, 0xf1, 
  0xb8, 0xed, 0xf0, 0xf9, 0x09, 0xd4, 0x23, 0x14, 0xc5, 0x3d, 0xe1, 0x58, 
  0x15, 0x0b, 0xe6, 0x06, 0xe9, 0xfe, 0xee, 0xe1, 0xf5, 0x02, 0xbf, 0xcd, 
  0x15, 0x1f, 0x26, 0xc9, 0x0d, 0x02, 0xef, 0x04, 0x34, 0x08, 0xf3, 0x0a, 
  0xee, 0xe6, 0xec, 0xfb, 0x1b, 0xf7, 0x0b, 0xd3, 0xdb, 0xf9, 0x1a, 0x06, 
  0x1e, 0xdc, 0x09, 0x2c, 0x30, 0xb6, 0x43, 0xea, 0x18, 0x09, 0x0d, 0xfc, 
  0x08, 0x0b, 0xc7, 0xff, 0x09, 0x79, 0x12, 0xd4, 0x29, 0x3a, 0xce, 0x4c, 
  0x14, 0xf7, 0xd7, 0xe1, 0x06, 0x28, 0x00, 0xe2, 0xcd, 0x17, 0xbd, 0xe8, 
  0xc3, 0x13, 0xe8, 0x02, 0x25, 0x0f, 0x11, 0xff, 0x04, 0xda, 0xe1, 0xec, 
  0xaa, 0xb7, 0xbe, 0x2b, 0xbb, 0xc7, 0x50, 0x07, 0x18, 0xf4, 0xcb, 0xde, 
  0xd1, 0x1e, 0xee, 0x04, 0x20, 0x6c, 0xef, 0xbc, 0xd2, 0x24, 0xdd, 0xcc, 
  0xd1, 0xdf, 0x0b, 0xc7, 0x4c, 0x21, 0x22, 0xfe, 0x27, 0x7a, 0xfc, 0xd1, 
  0xea, 0xf4, 0x81, 0xb6, 0xd9, 0xff, 0x22, 0xd9, 0x15, 0xc9, 0x3f, 0xf9, 
  0xe2, 0xcf, 0xe7, 0x10, 0x2e, 0xac, 0xf5, 0x10, 0x0a, 0xeb, 0xdf, 0xb7, 
  0xb7, 0x24, 0xfa, 0xd3, 0xe1, 0xec, 0x13, 0x35, 0x00, 0xd7, 0xd2, 0xf8, 
  0x3b, 0x0e, 0x0f, 0xfc, 0xd8, 0x42, 0x3c, 0x0c, 0x11, 0xde, 0xfc, 0xd6, 
  0xb3, 0x53, 0xea, 0x16, 0x20, 0x16, 0xfb, 0x33, 0x11, 0x0a, 0x0c, 0xda, 
  0xbf, 0xc0, 0x02, 0x09, 0x05, 0xc5, 0xe9, 0x3a, 0x01, 0x14, 0xf2, 0x0d, 
  0x09, 0xfc, 0xf9, 0x26, 0x00, 0x03, 0x05, 0x15, 0xf8, 0xf3, 0x11, 0xcf, 
  0x01, 0xf9, 0x16, 0xee, 0xfc, 0x13, 0x08, 0x0b, 0xf7, 0xe3, 0x21, 0xec, 
  0xdf, 0x38, 0x26, 0xc9, 0x1e, 0xe8, 0x07, 0x1e, 0xdb, 0xc7, 0xf6, 0xe1, 
  0x1c, 0xde, 0xe2, 0xe0, 0xf4, 0x07, 0x2e, 0x31, 0x22, 0xf8, 0xff, 0xfc, 
  0xff, 0x96, 0xf8, 0xe2, 0xde, 0xea, 0xf2, 0xf2, 0x00, 0x20, 0x81, 0x0a, 
  0x08, 0xf2, 0xf9, 0xca, 0x11, 0xfc, 0x30, 0xea, 0x2e, 0xeb, 0xf1, 0x05, 
  0x2e, 0xc3, 0xe7, 0x14, 0x0d, 0xe7, 0x1c, 0xfe, 0xac, 0xef, 0xb7, 0x05, 
  0x8f, 0x0f, 0xfc, 0xa1, 0xa9, 0xe5, 0x0a, 0xf8, 0xb8, 0xca, 0x09, 0x04, 
  0xd1, 0xec, 0xa6, 0xbd, 0xda, 0x17, 0xfc, 0xe6, 0xf0, 0xff, 0x02, 0x30, 
  0xec, 0xd5, 0xd5, 0xe6, 0xdf, 0xf1, 0xbd, 0x0d, 0xf9, 0x0b, 0x0f, 0xc6, 
  0xf0, 0x0a, 0x14, 0xf0, 0xc3, 0xdb, 0xfc, 0xf8, 0xe0, 0xe1, 0xc6, 0xbf, 
  0xc0, 0x14, 0x12, 0x16, 0x02, 0xd7, 0x0f, 0x36, 0xed, 0xe4, 0xf5, 0xf1, 
  0xc2, 0xc3, 0xc3, 0x1f, 0x16, 0xfe, 0x1e, 0xcf, 0xf3, 0x29, 0x03, 0xf2, 
  0xda, 0xe0, 0xf5, 0xfe, 0x07, 0xe5, 0xe9, 0xce, 0xc8, 0xdc, 0xee, 0x1d, 
  0x07, 0xe1, 0xf4, 0x14, 0x07, 0xc1, 0xf4, 0xfc, 0xf2, 0xd4, 0xc1, 0x16, 
  0xee, 0xf2, 0xee, 0x07, 0x21, 0x0e, 0x19, 0xdb, 0xfa, 0xfb, 0x0c, 0x02, 
  0xee, 0xea, 0xed, 0xce, 0xfe, 0xf5, 0xf1, 0x12, 0xfe, 0xe9, 0xfa, 0x14, 
  0x17, 0x12, 0xfa, 0x0b, 0xaa, 0xe5, 0xce, 0x14, 0x25, 0x08, 0x2a, 0xe5, 
  0x1e, 0x09, 0xf2, 0x0e, 0xe2, 0xf1, 0x2d, 0xf2, 0x18, 0xe8, 0xde, 0xb5, 
  0x12, 0xef, 0xff, 0xfe, 0x0d, 0xe4, 0x02, 0x02, 0x03, 0x02, 0xeb, 0x2d, 
  0xc8, 0xed, 0xda, 0x19, 0x13, 0xca, 0xfb, 0xe6, 0xfb, 0xea, 0xff, 0xfd, 
  0x1f, 0xc7, 0x24, 0xdf, 0xf9, 0xf9, 0x18, 0xad, 0xe7, 0xe6, 0x19, 0x2f, 
  0x15, 0x02, 0xed, 0xf9, 0xef, 0x07, 0x31, 0xf5, 0xd1, 0xc6, 0xe8, 0x2f, 
  0xed, 0x8a, 0x32, 0x5a, 0xe7, 0x13, 0xea, 0xf4, 0xf1, 0xbf, 0xfc, 0xfd, 
  0xf4, 0xd7, 0xb1, 0xb6, 0x07, 0xf7, 0xfb, 0x1e, 0xe4, 0xad, 0x25, 0xf8, 
  0x14, 0xd4, 0xdb, 0x33, 0x15, 0xe1, 0x0d, 0x8f, 0xf4, 0xf9, 0xdb, 0x09, 
  0xb6, 0xb9, 0x06, 0xff, 0x20, 0x21, 0x0f, 0x0f, 0x12, 0x2c, 0x1e, 0xf8, 
  0xd5, 0xf7, 0xd7, 0x00, 0x1e, 0x02, 0xe1, 0xb3, 0xf7, 0x28, 0xfb, 0xf3, 
  0xe7, 0x04, 0xf4, 0x0d, 0x0b, 0x32, 0xe5, 0x21, 0xf0, 0xfe, 0xc0, 0xfa, 
  0x4c, 0x14, 0x19, 0x1e, 0xcf, 0x2a, 0x0d, 0x18, 0x0b, 0x00, 0xce, 0xb2, 
  0xed, 0x34, 0xf5, 0xd7, 0xee, 0xc6, 0xaf, 0xfa, 0xdb, 0x0a, 0xff, 0xf6, 
  0xec, 0xf4, 0xdc, 0xeb, 0xd5, 0xf6, 0xc7, 0x08, 0x41, 0x11, 0xe8, 0xf9, 
  0xef, 0x2d, 0x31, 0x3e, 0xed, 0xdf, 0xfa, 0xeb, 0xe4, 0xf9, 0x15, 0xeb, 
  0xf4, 0xe8, 0xbd, 0xfb, 0xd9, 0x1c, 0x0a, 0xfc, 0xee, 0xed, 0x0a, 0xe5, 
  0xe7, 0xc1, 0xea, 0x09, 0x09, 0xe0, 0x14, 0x24, 0xe5, 0x1a, 0x29, 0x25, 
  0xec, 0xef, 0x0a, 0x04, 0xff, 0xe9, 0x13, 0xf8, 0x21, 0xf3, 0xe2, 0x02, 
  0x00, 0x03, 0x05, 0xcb, 0xf6, 0xf7, 0xf6, 0xe6, 0x20, 0x1d, 0x04, 0x1d, 
  0x02, 0x11, 0xf4, 0x33, 0xfd, 0xff, 0x0e, 0xf6, 0xde, 0xeb, 0xd3, 0xd5, 
  0x35, 0xf0, 0xf7, 0xfb, 0x2a, 0xfe, 0xfd, 0xf5, 0xdb, 0x2a, 0x0a, 0xfd, 
  0x0a, 0x20, 0xf7, 0xe8, 0xf6, 0x42, 0x1a, 0xe6, 0x1e, 0x02, 0xe8, 0x04, 
  0x11, 0xfe, 0xf8, 0x24, 0xed, 0x02, 0xce, 0xc0, 0xd5, 0x06, 0xf4, 0xd0, 
  0xdc, 0xec, 0xd5, 0xe7, 0xeb, 0x15, 0xe2, 0xda, 0xf3, 0x1d, 0xe9, 0xfe, 
  0x01, 0xe8, 0xe2, 0x52, 0x2b, 0xf3, 0xe8, 0xe9, 0xd4, 0x1a, 0x3d, 0x0a, 
  0xde, 0x14, 0xf2, 0xe7, 0xb4, 0x25, 0xbb, 0xb4, 0xe9, 0x39, 0xed, 0xb7, 
  0x19, 0xf3, 0x2f, 0x2d, 0x1d, 0xe1, 0xb1, 0xd8, 0xf9, 0xc0, 0x31, 0x81, 
  0x0c, 0xc8, 0x2b, 0xe6, 0xfb, 0x0d, 0xd5, 0xb8, 0xc0, 0xf7, 0xec, 0xe1, 
  0x0e, 0x07, 0x2d, 0x1e, 0x03, 0xee, 0x12, 0xd6, 0xea, 0x0c, 0xff, 0xf0, 
  0xe8, 0x21, 0x04, 0x20, 0xdf, 0xcd, 0x16, 0x13, 0xec, 0x01, 0xf1, 0x33, 
  0xf4, 0x23, 0x1d, 0xfd, 0xc6, 0x07, 0xee, 0xe4, 0xf8, 0x06, 0xf2, 0x01, 
  0x0b, 0xf9, 0xfb, 0xf9, 0x12, 0x00, 0xe7, 0xf6, 0xfa, 0xf2, 0xfb, 0xd9, 
  0xdd, 0x05, 0xdd, 0x0e, 0x1f, 0x15, 0x00, 0xff, 0xdf, 0xf5, 0xfb, 0xf4, 
  0x05, 0xd1, 0xff, 0xf2, 0x19, 0xd8, 0x17, 0xe5, 0xfa, 0x10, 0xf4, 0x0e, 
  0x21, 0x16, 0x16, 0x0d, 0xef, 0x7f, 0xfe, 0xd7, 0x0e, 0x0c, 0xe4, 0x11, 
  0x09, 0x07, 0xe7, 0xe4, 0xf6, 0x0d, 0x0d, 0x2c, 0xdd, 0x0b, 0xec, 0xfa, 
  0xf3, 0xe4, 0xda, 0xf0, 0x39, 0x02, 0xec, 0xe5, 0xe8, 0x05, 0x03, 0xed, 
  0xdf, 0xc7, 0x06, 0x07, 0xe4, 0x0d, 0x27, 0x34, 0xf2, 0x0a, 0x09, 0x03, 
  0xbf, 0x2e, 0x01, 0x2d, 0x12, 0x21, 0xf0, 0xba, 0xf0, 0x25, 0xfd, 0x05, 
  0xdb, 0xec, 0xf3, 0xfa, 0x0f, 0x1f, 0x1f, 0x0b, 0x08, 0x30, 0xff, 0x0f, 
  0x05, 0x15, 0xe7, 0x0c, 0x06, 0xfc, 0xe6, 0xd2, 0xe9, 0xde, 0x0b, 0x02, 
  0x07, 0xe2, 0xc1, 0xf6, 0x07, 0xda, 0xd7, 0x15, 0x0b, 0x10, 0xf1, 0xe2, 
  0xdb, 0x00, 0xc5, 0xf6, 0xe8, 0xfd, 0xf3, 0x12, 0xbc, 0xea, 0xec, 0x04, 
  0x20, 0xf9, 0x0d, 0xd8, 0xd3, 0x2c, 0x04, 0xfb, 0xe2, 0x2b, 0xe4, 0xc5, 
  0xb9, 0x3f, 0xe6, 0xff, 0x25, 0xcb, 0xd6, 0xf9, 0x0c, 0x00, 0x26, 0xfc, 
  0xe8, 0xc9, 0xf4, 0xfc, 0xc7, 0xd4, 0xf7, 0x26, 0xf4, 0x1d, 0xfe, 0x18, 
  0x17, 0x00, 0x0a, 0x27, 0x02, 0xf9, 0x20, 0x03, 0x03, 0x1d, 0xed, 0xf1, 
  0x04, 0xf8, 0x05, 0xe9, 0x0f, 0xf4, 0x00, 0x09, 0xfb, 0xeb, 0x09, 0x05, 
  0xe5, 0xfe, 0x08, 0xdb, 0x00, 0x04, 0xfa, 0xf8, 0xee, 0xf4, 0x16, 0xfb, 
  0xd6, 0xd4, 0xec, 0xdb, 0x11, 0xff, 0x03, 0x02, 0xf6, 0xed, 0x1c, 0x0a, 
  0xfc, 0xef, 0xfe, 0xef, 0x05, 0x31, 0x0b, 0xbf, 0x2a, 0xfe, 0xb5, 0xce, 
  0x11, 0xe7, 0x2b, 0xda, 0xf5, 0xf6, 0xf8, 0x01, 0x01, 0xf1, 0x1e, 0x0e, 
  0x1f, 0xe7, 0xf2, 0xef, 0x40, 0xfa, 0xfd, 0x13, 0xfc, 0x12, 0x0b, 0xfb, 
  0xdc, 0x10, 0x00, 0xf2, 0xed, 0xdc, 0xd7, 0xc3, 0x1c, 0x0d, 0x11, 0x10, 
  0x0a, 0x50, 0x29, 0x26, 0x12, 0xf2, 0xea, 0xdb, 0xc3, 0x64, 0xf6, 0xe0, 
  0x06, 0x06, 0x05, 0x15, 0x1b, 0x01, 0x05, 0xe8, 0xf7, 0xba, 0xfb, 0x1a, 
  0x07, 0xe3, 0x17, 0x09, 0x29, 0xf5, 0xf8, 0xe7, 0xde, 0x23, 0x0e, 0x3b, 
  0x02, 0xdd, 0xe9, 0xf6, 0xfa, 0x27, 0x1b, 0x08, 0xe5, 0xf7, 0xe7, 0x09, 
  0x19, 0x04, 0x1f, 0xd2, 0x30, 0x6a, 0xf5, 0xef, 0xfe, 0xef, 0xcb, 0xcb, 
  0xff, 0x0e, 0x0a, 0xed, 0x11, 0xe5, 0x1f, 0x03, 0xdb, 0xcc, 0x14, 0xe8, 
  0xca, 0xd0, 0xed, 0xd8, 0xf2, 0x0f, 0x08, 0xe2, 0xd2, 0x1c, 0xd6, 0xa4, 
  0xf4, 0xc7, 0x07, 0x1a, 0xd8, 0xf8, 0x22, 0x44, 0x03, 0xf8, 0xeb, 0x16, 
  0xd0, 0x3b, 0x19, 0x31, 0xe1, 0x27, 0xde, 0xa7, 0x89, 0x6c, 0x06, 0x09, 
  0x1f, 0xf7, 0xca, 0xff, 0x3a, 0x03, 0x2c, 0xe6, 0x0a, 0x22, 0xef, 0xff, 
  0xb7, 0x0a, 0xd1, 0xff, 0x1e, 0xdb, 0xed, 0xe2, 0xfb, 0xe6, 0xf8, 0x3c, 
  0x05, 0xf9, 0xc7, 0xe1, 0xd5, 0xef, 0x2c, 0xe4, 0xc9, 0xf7, 0xc2, 0xf0, 
  0xfb, 0x15, 0x0a, 0xc4, 0xdf, 0x39, 0x0f, 0xf7, 0xc7, 0x00, 0xe3, 0x02, 
  0x09, 0x30, 0xf0, 0xce, 0xe1, 0x0d, 0x18, 0x36, 0xbf, 0x10, 0xe3, 0x9e, 
  0xc8, 0x0f, 0xee, 0xf3, 0x32, 0xe5, 0xf1, 0xd4, 0xd9, 0x0f, 0xdf, 0x10, 
  0x94, 0x1f, 0xf7, 0xff, 0xe2, 0xe3, 0xef, 0x20, 0xd4, 0xf6, 0xd7, 0xd7, 
  0xf0, 0x22, 0x06, 0x08, 0x81, 0x07, 0xe0, 0xae, 0xea, 0x37, 0xa8, 0x03, 
  0xd7, 0x30, 0xe8, 0x9e, 0xfe, 0xce, 0x16, 0xf8, 0xce, 0xf9, 0xc7, 0xfc, 
  0xfb, 0xe5, 0xf6, 0x02, 0xff, 0x2c, 0x20, 0x20, 0xed, 0x17, 0x0d, 0xf6, 
  0xbc, 0x24, 0xe2, 0x0c, 0x29, 0x1f, 0xde, 0xd3, 0xfa, 0x19, 0xeb, 0xf1, 
  0xfa, 0xec, 0xfd, 0x11, 0x09, 0x36, 0xf3, 0x03, 0xc5, 0xfb, 0xae, 0x0f, 
  0x0f, 0x16, 0x19, 0xe7, 0xd8, 0x1b, 0x20, 0xfd, 0x10, 0xe2, 0xcd, 0xf1, 
  0xd8, 0xd6, 0x38, 0x26, 0x15, 0x06, 0xf3, 0xcf, 0xd8, 0x23, 0x03, 0xe3, 
  0xf9, 0x2f, 0xe1, 0x00, 0xf1, 0xd5, 0xfc, 0x30, 0x0e, 0x04, 0x01, 0xc5, 
  0xc3, 0x4e, 0x37, 0xef, 0xe8, 0x3c, 0xbe, 0xee, 0xbf, 0x22, 0x00, 0x14, 
  0x01, 0xea, 0x0f, 0x0f, 0xed, 0x2a, 0x07, 0xf6, 0xf8, 0xc2, 0x13, 0xfe, 
  0xf6, 0xba, 0xe0, 0x29, 0x19, 0xe9, 0xff, 0xe0, 0xe8, 0xff, 0x23, 0x25, 
  0xe7, 0xff, 0xf0, 0xe8, 0xf5, 0xea, 0x13, 0xda, 0xea, 0xe8, 0xea, 0x1e, 
  0x27, 0x02, 0xef, 0xe7, 0x06, 0x2f, 0x24, 0xe0, 0xf8, 0x1b, 0xc4, 0xec, 
  0xe5, 0x1b, 0xf0, 0xf5, 0xfa, 0x0e, 0x3f, 0x3e, 0xf9, 0xee, 0xd5, 0xeb, 
  0x21, 0xb0, 0xea, 0xda, 0x09, 0xfb, 0xe8, 0xfe, 0xe8, 0x33, 0x1d, 0x19, 
  0xd3, 0xef, 0x22, 0x29, 0x09, 0xff, 0x10, 0x29, 0x22, 0x12, 0xdb, 0x26, 
  0xe0, 0x23, 0x0c, 0x2b, 0xfa, 0x03, 0xc4, 0xd6, 0xc2, 0x04, 0x0f, 0xeb, 
  0x25, 0xe9, 0xeb, 0xf9, 0xe9, 0x29, 0xd0, 0xe2, 0xf3, 0x16, 0x0a, 0xff, 
  0xf8, 0xd9, 0xf0, 0x27, 0x13, 0xfb, 0xda, 0x0c, 0xd7, 0x06, 0x28, 0x2f, 
  0x11, 0xfc, 0xe6, 0xf4, 0xcb, 0x04, 0xff, 0xde, 0xcc, 0x20, 0xfa, 0xde, 
  0x0e, 0xf6, 0x26, 0x30, 0xfd, 0xcd, 0xe3, 0xf9, 0x16, 0xf2, 0x33, 0x81, 
  0xe3, 0x81, 0x46, 0xe5, 0x1b, 0x2d, 0xd8, 0x09, 0xc9, 0xd5, 0x0b, 0xc7, 
  0x19, 0xe0, 0x37, 0x3c, 0xec, 0xcc, 0x0e, 0x10, 0xf4, 0xfd, 0xfe, 0xf7, 
  0xed, 0x27, 0x1b, 0xd8, 0x1f, 0x0c, 0xbd, 0xc5, 0x02, 0xd5, 0x09, 0xdb, 
  0xf2, 0x06, 0x23, 0xe1, 0x00, 0xdd, 0x0d, 0x1b, 0xf7, 0xd9, 0xed, 0x02, 
  0x2c, 0x02, 0x0e, 0x32, 0xe5, 0x0d, 0xee, 0x02, 0xc1, 0xf4, 0xff, 0xfb, 
  0x0a, 0xf7, 0xd8, 0xe5, 0x19, 0x41, 0xfe, 0x03, 0x02, 0x4a, 0x1b, 0x23, 
  0xe0, 0x23, 0xf3, 0xcc, 0x98, 0x7f, 0xe3, 0xf1, 0x01, 0x0c, 0xe6, 0xe9, 
  0x14, 0xfe, 0x1e, 0xcb, 0x20, 0x9e, 0x07, 0x22, 0xcb, 0xc6, 0xf9, 0x23, 
  0x1d, 0xde, 0xf5, 0xee, 0xf2, 0xde, 0xff, 0x15, 0x3b, 0xdb, 0x04, 0xf4, 
  0xca, 0x02, 0x18, 0xf9, 0xf6, 0x08, 0x1c, 0xbb, 0x37, 0x0d, 0xe2, 0xfa, 
  0x10, 0x77, 0xfc, 0xeb, 0x14, 0x0e, 0xa1, 0xb3, 0xef, 0x0b, 0x1b, 0xd6, 
  0xf0, 0x0b, 0x29, 0x03, 0xc7, 0xc0, 0xe3, 0xfc, 0xd6, 0xda, 0x0e, 0x01, 
  0xfc, 0x18, 0x18, 0xc4, 0xd7, 0x3a, 0xba, 0xd0, 0xff, 0x8a, 0x22, 0x54, 
  0xd4, 0xd1, 0x25, 0x41, 0x19, 0xf9, 0xe4, 0xcf, 0xde, 0x3f, 0x1d, 0x57, 
  0x23, 0x10, 0xe8, 0xaa, 0xa3, 0x64, 0xdd, 0xc9, 0x0c, 0x14, 0xde, 0x05, 
  0x33, 0x01, 0x20, 0xf3, 0xf8, 0x2f, 0xef, 0x09, 0xfc, 0x11, 0xe4, 0xe2, 
  0x25, 0x0e, 0x0e, 0xe8, 0xee, 0xe5, 0xeb, 0x3c, 0xe2, 0xe6, 0xe8, 0xf6, 
  0xec, 0xd2, 0x36, 0xb7, 0xe2, 0x09, 0xc3, 0xdc, 0x1e, 0x1b, 0x14, 0xe2, 
  0x28, 0x41, 0x00, 0xe6, 0xfe, 0xf9, 0xdd, 0x0c, 0xfd, 0x33, 0xf0, 0xef, 
  0xd5, 0x26, 0x1a, 0x11, 0xe2, 0xd1, 0xee, 0xa6, 0xbd, 0x0b, 0x20, 0xdb, 
  0x11, 0xfe, 0xca, 0xe7, 0x08, 0x0c, 0xbd, 0x16, 0xb5, 0x21, 0x00, 0x17, 
  0x10, 0xe7, 0xb0, 0x10, 0xbb, 0x17, 0xef, 0x2a, 0xdf, 0x24, 0x00, 0x17, 
  0xb5, 0xfa, 0xeb, 0xc1, 0xf3, 0x15, 0xc5, 0x90, 0xb5, 0x3f, 0xfa, 0xa6, 
  0x13, 0x17, 0x16, 0xba, 0xc9, 0x20, 0x01, 0x2b, 0x00, 0xb0, 0x1a, 0x2e, 
  0xca, 0x23, 0xef, 0x55, 0x02, 0x0c, 0xff, 0xf3, 0xd0, 0xfd, 0xe4, 0xd2, 
  0xe4, 0x1f, 0x03, 0xcd, 0xf1, 0x09, 0xf9, 0xfe, 0x36, 0xd9, 0x1b, 0x03, 
  0x0c, 0x27, 0xef, 0x0c, 0xef, 0xf9, 0xae, 0x16, 0x4e, 0x07, 0xfb, 0xeb, 
  0xed, 0x14, 0x0b, 0x15, 0x16, 0xc7, 0xe0, 0xc5, 0xf2, 0x00, 0x0a, 0xe6, 
  0x4a, 0x1e, 0xf2, 0x09, 0x2d, 0x1e, 0x12, 0xc9, 0x03, 0x68, 0xf6, 0x03, 
  0xdb, 0xe0, 0xc4, 0xfe, 0xe2, 0x0d, 0x07, 0xef, 0xd3, 0x26, 0x2f, 0x19, 
  0xcf, 0x14, 0xdd, 0x08, 0xd4, 0xe8, 0xf4, 0xd0, 0x0b, 0x1c, 0xc8, 0x12, 
  0x18, 0x2f, 0x1b, 0xc9, 0x03, 0x89, 0xfd, 0x04, 0xee, 0xcf, 0x05, 0x32, 
  0x16, 0x10, 0xf3, 0xf8, 0xcb, 0x55, 0x2e, 0x26, 0x1a, 0x13, 0xd5, 0x88, 
  0xa3, 0x57, 0xc4, 0xc4, 0x12, 0x0b, 0xcd, 0xd2, 0x57, 0x07, 0x3d, 0xe1, 
  0x20, 0x3b, 0x0a, 0xeb, 0xb1, 0x27, 0xc0, 0xed, 0xf1, 0xce, 0x1c, 0xe8, 
  0x03, 0xc3, 0x2a, 0x36, 0xe2, 0xea, 0xd8, 0xd8, 0x19, 0xe4, 0x07, 0x01, 
  0xf1, 0xf7, 0xe2, 0xf7, 0xe3, 0x4b, 0xf7, 0xc7, 0x0a, 0xf7, 0x11, 0x2b, 
  0xba, 0x01, 0xf5, 0x2e, 0x47, 0x01, 0xd7, 0x0b, 0xcf, 0x50, 0x32, 0x2e, 
  0x0f, 0xdd, 0xd0, 0xdd, 0xa0, 0x45, 0xdd, 0x13, 0x02, 0x0a, 0xe5, 0xe1, 
  0x2c, 0x0c, 0xf9, 0xe9, 0xfe, 0xe4, 0xfb, 0xe7, 0x96, 0xd2, 0x06, 0x35, 
  0x0e, 0xec, 0xea, 0xf8, 0xe0, 0x1d, 0x1c, 0x36, 0x20, 0x32, 0xec, 0xe3, 
  0xfd, 0x2d, 0x0d, 0xbf, 0xde, 0xe6, 0xfd, 0xc4, 0x25, 0x06, 0x25, 0x1d, 
  0x0d, 0xcc, 0xe6, 0xe8, 0x08, 0xf1, 0x2a, 0x81, 0xd7, 0xb6, 0x25, 0xf9, 
  0x13, 0xe7, 0xf5, 0xef, 0xd3, 0xc2, 0xe0, 0xd7, 0xf4, 0x0f, 0xfa, 0x28, 
  0xd3, 0xe3, 0x39, 0xd1, 0xc6, 0x12, 0xda, 0x1e, 0x25, 0xeb, 0xd6, 0xfa, 
  0xfc, 0xcd, 0x0f, 0xda, 0x81, 0xdd, 0x08, 0x11, 0xd8, 0xf4, 0xc4, 0x14, 
  0x01, 0xf3, 0xfd, 0x19, 0xea, 0xe1, 0x01, 0xec, 0x0f, 0x10, 0xf1, 0x02, 
  0xce, 0xcb, 0xdd, 0x1a, 0xf7, 0x0e, 0x06, 0xf1, 0x14, 0x1a, 0x35, 0x04, 
  0xe7, 0x00, 0xf3, 0xef, 0x13, 0xd6, 0x07, 0xe0, 0x1a, 0xd9, 0x0a, 0x22, 
  0x3f, 0x04, 0xdc, 0x08, 0x22, 0x02, 0x16, 0x12, 0xeb, 0xcf, 0xee, 0x13, 
  0xf4, 0xf2, 0x08, 0xff, 0xff, 0x0b, 0x0a, 0xfa, 0xfb, 0xf9, 0xef, 0x10, 
  0x04, 0x00, 0xe2, 0xf0, 0x0e, 0x05, 0xfb, 0xfe, 0x22, 0xe3, 0xe3, 0x02, 
  0xf0, 0xfb, 0x02, 0xfd, 0xd3, 0xcf, 0xfa, 0x23, 0x04, 0xfe, 0x1a, 0x0c, 
  0xff, 0xec, 0x19, 0x00, 0xd7, 0xee, 0xfd, 0x03, 0xda, 0xf3, 0xdf, 0xd5, 
  0x08, 0xfa, 0xeb, 0x0f, 0x0d, 0x03, 0xfc, 0x0a, 0xf2, 0xf6, 0x07, 0x04, 
  0xcf, 0xea, 0xdd, 0x11, 0x08, 0xe4, 0x26, 0x04, 0xdb, 0x00, 0xf9, 0xf1, 
  0xe1, 0xe4, 0x13, 0x0f, 0xf7, 0xfc, 0xf0, 0xb2, 0xee, 0xde, 0xe5, 0xf3, 
  0x0f, 0xf8, 0xf5, 0xf0, 0xe9, 0xf9, 0xff, 0x22, 0xc2, 0xc8, 0xc7, 0x0b, 
  0x02, 0x05, 0x07, 0xc2, 0xef, 0x07, 0x18, 0x0c, 0x01, 0xf1, 0xee, 0x18, 
  0xf6, 0x00, 0xba, 0xbb, 0xe2, 0xf4, 0xff, 0x1f, 0xfb, 0xd5, 0xe5, 0x0a, 
  0xe3, 0xe8, 0x13, 0x17, 0xd5, 0xe1, 0xa6, 0x0f, 0x01, 0xf5, 0x20, 0xc3, 
  0xde, 0xf7, 0x00, 0xea, 0xf9, 0xca, 0x18, 0x0c, 0xdd, 0x0e, 0xce, 0x94, 
  0xcc, 0xe0, 0xec, 0x0e, 0xf5, 0xf2, 0x10, 0x1a, 0xdb, 0x1e, 0x0d, 0x04, 
  0x02, 0xef, 0x04, 0xb6, 0xf4, 0x28, 0x03, 0xbc, 0x21, 0xfa, 0xde, 0xea, 
  0xfd, 0xcb, 0xe6, 0xf2, 0xff, 0xd9, 0xfa, 0x19, 0xf2, 0xfb, 0x0b, 0x25, 
  0x0f, 0x12, 0xf0, 0xc5, 0x00, 0xe3, 0xd7, 0xf0, 0xdd, 0x1f, 0x1e, 0x92, 
  0x16, 0x4e, 0xfe, 0x3f, 0xe8, 0x89, 0x05, 0xed, 0xf8, 0x0c, 0xdb, 0x1e, 
  0xea, 0x23, 0x35, 0xf8, 0xb2, 0x01, 0x8b, 0xdc, 0xe3, 0x33, 0x07, 0xd9, 
  0xff, 0xd8, 0xfc, 0x10, 0xfc, 0x17, 0xeb, 0x11, 0xe9, 0x28, 0xfe, 0xd7, 
  0xd8, 0xf8, 0xe8, 0xd7, 0x25, 0x21, 0x28, 0x09, 0xfc, 0x22, 0x28, 0x19, 
  0xc0, 0xb9, 0xd8, 0xbd, 0x92, 0x1c, 0xf8, 0xbd, 0x3c, 0x04, 0xbe, 0xc2, 
  0x26, 0x33, 0x35, 0xa9, 0xf1, 0x4b, 0xe5, 0xd2, 0x08, 0x06, 0xd3, 0x02, 
  0xe3, 0x20, 0xf7, 0xef, 0xd0, 0x50, 0x13, 0x43, 0xbf, 0xf3, 0x04, 0xb7, 
  0xbf, 0xdf, 0xea, 0xf5, 0x4c, 0xf4, 0xe0, 0x00, 0x1b, 0x1e, 0x4b, 0xeb, 
  0xbd, 0x9b, 0xdb, 0xd2, 0xd4, 0xd4, 0xf0, 0xe0, 0xf1, 0xd8, 0x2b, 0xfe, 
  0xe2, 0x30, 0x49, 0x1e, 0x0c, 0xf3, 0xe2, 0xdb, 0x14, 0x33, 0x0d, 0xca, 
  0x09, 0xff, 0xe4, 0xd4, 0x03, 0x43, 0xe2, 0xfa, 0xd6, 0xeb, 0x03, 0x32, 
  0xc6, 0x3a, 0xcc, 0x39, 0x0e, 0x28, 0xc4, 0x0a, 0x9c, 0x03, 0xea, 0x21, 
  0x22, 0x09, 0xf7, 0xbd, 0x0e, 0x1c, 0xc7, 0xf4, 0x04, 0xd8, 0xb1, 0x01, 
  0xb2, 0x22, 0x33, 0x23, 0x12, 0x11, 0xdd, 0x22, 0x0e, 0x27, 0x0c, 0x1b, 
  0x30, 0x42, 0xc8, 0xe5, 0xf5, 0x31, 0x13, 0xf0, 0xac, 0x1c, 0x81, 0xca, 
  0xbd, 0x22, 0xf7, 0xf3, 0xcd, 0xf1, 0xdf, 0xe9, 0x3f, 0x15, 0x3d, 0xcd, 
  0xbc, 0xf0, 0xd4, 0xea, 0x95, 0xc8, 0xe7, 0x68, 0xf4, 0xe2, 0xab, 0x05, 
  0xb8, 0x3c, 0x13, 0x21, 0x08, 0x53, 0xbc, 0xae, 0xf0, 0x3a, 0xb7, 0xdb, 
  0xcf, 0xe1, 0x25, 0xa4, 0x0c, 0x16, 0xeb, 0x44, 0x18, 0x0f, 0xde, 0xe8, 
  0xf0, 0x22, 0x14, 0xc8, 0x20, 0x3e, 0x1c, 0xd8, 0x31, 0xff, 0x1b, 0xc0, 
  0xc5, 0xba, 0x17, 0xdc, 0xd5, 0x27, 0xf8, 0x01, 0xe1, 0xe9, 0x1e, 0xb7, 
  0x05, 0x51, 0xc8, 0x18, 0x05, 0x52, 0x2d, 0xa6, 0x3f, 0x11, 0xf6, 0xd1, 
  0xe6, 0xe7, 0x4d, 0xe8, 0xf4, 0x05, 0x8f, 0xf5, 0x11, 0xe1, 0x0e, 0x13, 
  0xe9, 0xf8, 0x04, 0xf5, 0xc1, 0x13, 0xf4, 0x26, 0xd9, 0xfe, 0x2f, 0xff, 
  0xdf, 0x41, 0xfe, 0xd0, 0xa6, 0xb0, 0xe2, 0xef, 0x31, 0xfd, 0x0b, 0xf7, 
  0xd9, 0x1e, 0x11, 0xdf, 0xc9, 0xd6, 0x04, 0xfc, 0xef, 0x48, 0x0f, 0xf1, 
  0x08, 0x05, 0x03, 0x34, 0xdc, 0xf9, 0xfb, 0xee, 0xc3, 0xee, 0xdc, 0xdf, 
  0xf0, 0xe2, 0xf8, 0x1a, 0x1b, 0x11, 0x0d, 0x2e, 0xba, 0xda, 0x24, 0x61, 
  0xef, 0xe5, 0xed, 0xf0, 0xf2, 0x06, 0xe5, 0x00, 0xd9, 0xfc, 0xc6, 0x03, 
  0xd9, 0xf3, 0x1b, 0xf5, 0x1f, 0x43, 0xff, 0xca, 0x2b, 0x1e, 0xe5, 0xcb, 
  0xf1, 0xe7, 0x1b, 0x17, 0xe2, 0xc3, 0xf3, 0xf9, 0xea, 0xc4, 0xee, 0xd8, 
  0x1d, 0x9c, 0x2a, 0x13, 0x36, 0x02, 0x0d, 0xff, 0xc3, 0x01, 0xc7, 0xf7, 
  0xe9, 0x09, 0x04, 0x01, 0xfb, 0x45, 0xf5, 0x33, 0xec, 0x04, 0x04, 0x05, 
  0xd2, 0xf9, 0x22, 0x2c, 0xf2, 0x32, 0xfb, 0xa8, 0xc7, 0x55, 0xd6, 0x17, 
  0xf8, 0xdb, 0xe9, 0xea, 0xe9, 0xcd, 0x19, 0x0c, 0xf1, 0xea, 0x07, 0x07, 
  0xcd, 0x36, 0x0c, 0x29, 0x34, 0xf1, 0xa6, 0xfa, 0xcd, 0x0b, 0xe9, 0xff, 
  0xea, 0xf5, 0xf3, 0x9e, 0xbe, 0x0e, 0xcc, 0xe4, 0xe4, 0xc9, 0xbb, 0x01, 
  0xee, 0xa5, 0xe0, 0x0f, 0xf8, 0x45, 0xcb, 0x0a, 0xe8, 0xe9, 0xd5, 0x17, 
  0x3a, 0x24, 0xe4, 0xeb, 0xd1, 0x2d, 0xfe, 0xf5, 0xa8, 0x0c, 0xd2, 0x81, 
  0xba, 0x29, 0xf5, 0x1f, 0x0c, 0xca, 0x96, 0xec, 0x22, 0xe5, 0x09, 0xfa, 
  0xd3, 0x02, 0xf1, 0xaf, 0xce, 0xf5, 0xe1, 0x16, 0x1c, 0x20, 0xe5, 0xe8, 
  0x1a, 0xf8, 0xc2, 0x45, 0x8b, 0x01, 0xb6, 0x18, 0x24, 0x47, 0xe3, 0xce, 
  0xd8, 0x4e, 0xb5, 0xe3, 0x02, 0x35, 0xe9, 0x13, 0x1a, 0x6d, 0x30, 0xcf, 
  0x1d, 0xeb, 0x3c, 0xc9, 0xd1, 0xee, 0x2b, 0x1f, 0xe2, 0xdf, 0xd4, 0xe8, 
  0xe4, 0xdf, 0x21, 0x0b, 0xe2, 0x27, 0x2a, 0x1b, 0xde, 0x25, 0x0a, 0xe5, 
  0xdc, 0xcf, 0xea, 0x01, 0xdb, 0xf4, 0xfc, 0x0b, 0xc9, 0x0e, 0x1b, 0x17, 
  0xc7, 0x1f, 0xe7, 0x29, 0xf6, 0xf5, 0x15, 0xf9, 0xea, 0x0d, 0xd5, 0xe1, 
  0xf1, 0x34, 0xfa, 0xf9, 0x0f, 0xf8, 0xf3, 0x0b, 0x0d, 0xed, 0xf9, 0xe4, 
  0xeb, 0x03, 0x06, 0xd3, 0x0a, 0x22, 0x0c, 0xda, 0xe4, 0xf9, 0x0a, 0x1a, 
  0x0c, 0x16, 0x09, 0xe5, 0xf6, 0xf6, 0x38, 0x08, 0xf2, 0xf0, 0xfd, 0x39, 
  0xcf, 0xf3, 0xf2, 0xfb, 0xf5, 0x04, 0xee, 0x0a, 0x03, 0xf7, 0xfb, 0xf1, 
  0xfe, 0x20, 0xfb, 0xf3, 0xcf, 0xee, 0x29, 0x22, 0xed, 0xf1, 0x25, 0xd2, 
  0xc8, 0x13, 0xf3, 0xdb, 0xef, 0x18, 0x11, 0x06, 0xf4, 0xf1, 0xf7, 0x11, 
  0xaf, 0x16, 0x0a, 0x2e, 0xf1, 0x12, 0x15, 0xc9, 0x14, 0x22, 0xff, 0x25, 
  0x13, 0x1b, 0x2f, 0xe4, 0x19, 0xf6, 0xd0, 0x0a, 0xcb, 0x15, 0x0e, 0x17, 
  0xe8, 0x18, 0xe5, 0x05, 0x1b, 0xe9, 0xf6, 0xec, 0xe1, 0x12, 0x0b, 0xe7, 
  0xda, 0xc6, 0x11, 0xff, 0xbb, 0x15, 0x03, 0xf4, 0x42, 0xda, 0x03, 0xdc, 
  0xda, 0x13, 0xd9, 0x14, 0xc8, 0xe2, 0xd4, 0x0a, 0xc0, 0x3d, 0xe0, 0xec, 
  0xfd, 0x0f, 0x04, 0xf2, 0xf7, 0xd2, 0xc3, 0xd3, 0x0a, 0xfc, 0xca, 0xc1, 
  0x07, 0x0c, 0x04, 0x4a, 0x1a, 0xdc, 0xf2, 0xf3, 0xde, 0x1e, 0xe6, 0xf1, 
  0x83, 0x02, 0xd4, 0xec, 0xf1, 0xfb, 0xeb, 0x09, 0xf7, 0xdb, 0xda, 0xd4, 
  0x3f, 0xdd, 0x06, 0x89, 0xcc, 0x1a, 0xc0, 0x8b, 0xca, 0x21, 0xe7, 0x35, 
  0xbf, 0xf8, 0xbe, 0xd9, 0x1a, 0xd8, 0xa9, 0x42, 0xde, 0xe8, 0x0b, 0x12, 
  0x37, 0x30, 0xe1, 0x83, 0xa4, 0x7f, 0xb0, 0xc0, 0xf9, 0xba, 0xf6, 0xa8, 
  0xb8, 0xe6, 0xb4, 0xfd, 0x24, 0x0f, 0x00, 0xfa, 0x1e, 0x3b, 0xbc, 0xa5, 
  0x17, 0xe1, 0x2b, 0xe1, 0x1b, 0x10, 0xe3, 0xfc, 0x2a, 0xbd, 0xc7, 0xdd, 
  0x1b, 0xf8, 0x1d, 0xe2, 0xb6, 0xff, 0xb5, 0x17, 0xb2, 0x07, 0x10, 0xc5, 
  0xc0, 0xf7, 0x1e, 0xeb, 0xe8, 0xde, 0x0e, 0xf6, 0xba, 0xdc, 0xea, 0xf5, 
  0x2c, 0x10, 0x01, 0x0d, 0x18, 0xce, 0xda, 0xf7, 0x00, 0x0b, 0xe2, 0xf3, 
  0xe7, 0xff, 0xde, 0xef, 0xe3, 0x46, 0xc6, 0xfa, 0xe0, 0x38, 0xf4, 0xdc, 
  0xe2, 0x0e, 0x28, 0xf1, 0x0b, 0xda, 0x10, 0x0c, 0x01, 0x0e, 0xe3, 0xf6, 
  0xfe, 0xbf, 0x36, 0x0e, 0xc5, 0xec, 0xe2, 0x07, 0xf0, 0xd3, 0xd6, 0x1d, 
  0xcf, 0xef, 0xd4, 0xd5, 0x0c, 0xf6, 0x1a, 0x1c, 0xd2, 0x27, 0xdb, 0xe6, 
  0x20, 0x02, 0xca, 0x04, 0x0e, 0x47, 0xf8, 0x00, 0x2c, 0x31, 0x00, 0xe6, 
  0xf9, 0xfd, 0x00, 0xea, 0xe3, 0xd3, 0xd7, 0x1e, 0xe5, 0xf8, 0x0d, 0xf5, 
  0xfe, 0x01, 0x20, 0x16, 0x02, 0xe5, 0xfb, 0xed, 0xfc, 0xdf, 0xcf, 0xea, 
  0xfb, 0xef, 0x16, 0x10, 0x24, 0xc5, 0x19, 0x13, 0xf8, 0xe0, 0xd7, 0xf7, 
  0xd5, 0xed, 0xe9, 0x10, 0xed, 0x05, 0xd2, 0xff, 0xf2, 0x26, 0x0b, 0x0a, 
  0xde, 0xdf, 0x09, 0xfd, 0xd4, 0xeb, 0x08, 0x13, 0xe2, 0x31, 0x16, 0xe8, 
  0xdb, 0x06, 0xcb, 0xcd, 0xfd, 0x10, 0x09, 0x27, 0xce, 0xe1, 0xdd, 0xe4, 
  0x06, 0x1b, 0x03, 0xc7, 0xfb, 0x0e, 0xd7, 0x10, 0xe9, 0x1f, 0x0f, 0x23, 
  0xda, 0xe7, 0xdc, 0xe9, 0xf8, 0xda, 0xfd, 0x08, 0xf8, 0xdd, 0xe5, 0xc9, 
  0xee, 0xe0, 0x20, 0x02, 0xdf, 0xf0, 0xef, 0x13, 0x1c, 0xb7, 0xe2, 0x07, 
  0x0b, 0x23, 0xed, 0xf3, 0xf5, 0xd3, 0x3d, 0x3f, 0xeb, 0x20, 0x81, 0xf4, 
  0xd8, 0x10, 0x27, 0xed, 0xea, 0x07, 0x26, 0x05, 0x0f, 0xc9, 0x1a, 0x2f, 
  0xf6, 0xae, 0xf2, 0x9c, 0x95, 0xfc, 0xa6, 0xf6, 0x0d, 0xe9, 0xfc, 0x17, 
  0x2d, 0x19, 0xc9, 0xf6, 0x01, 0x08, 0x4e, 0xdc, 0xf1, 0x2f, 0x07, 0xc2, 
  0x1a, 0xef, 0xb9, 0xc4, 0x17, 0xcb, 0x41, 0x04, 0xaa, 0x0e, 0xc7, 0xff, 
  0xae, 0x22, 0xdc, 0xae, 0xcf, 0xf3, 0xe4, 0xd0, 0xdb, 0xfa, 0x36, 0x0b, 
  0xe3, 0xf3, 0xcb, 0xfe, 0xc7, 0xf9, 0xfd, 0x17, 0xcd, 0xec, 0xde, 0x25, 
  0xfc, 0x45, 0xda, 0xf5, 0xdf, 0x0a, 0xeb, 0x06, 0xfd, 0x32, 0xc6, 0xb3, 
  0x1d, 0x16, 0xfb, 0x0c, 0x19, 0xfb, 0x09, 0xfd, 0x0f, 0x13, 0x0f, 0x2a, 
  0xa7, 0x0e, 0xc9, 0xff, 0xc7, 0x24, 0x23, 0x26, 0xd8, 0xe2, 0xf4, 0xd2, 
  0xdc, 0xda, 0xf9, 0xf1, 0xfa, 0xcc, 0xbc, 0xd7, 0x05, 0x20, 0x22, 0x12, 
  0xfc, 0xed, 0xe5, 0xf8, 0xcf, 0x09, 0xd0, 0xec, 0x0f, 0x2e, 0xe8, 0xfb, 
  0xfb, 0x17, 0x11, 0xda, 0xf0, 0xda, 0xd8, 0xe7, 0xcd, 0xdd, 0xee, 0x0e, 
  0xed, 0x03, 0xec, 0xb7, 0x39, 0x1a, 0x26, 0x07, 0xe4, 0x03, 0xd9, 0x09, 
  0xd1, 0x0b, 0xb0, 0xd6, 0xda, 0xf8, 0x2f, 0x1a, 0x40, 0xee, 0xd8, 0xf7, 
  0xf5, 0xd5, 0xbd, 0xe6, 0xe7, 0xec, 0xe0, 0xe3, 0xec, 0xff, 0x1a, 0xed, 
  0xf5, 0x02, 0x01, 0x1d, 0x0e, 0x18, 0xe2, 0xe2, 0xf3, 0x00, 0xde, 0xf6, 
  0xd8, 0x26, 0xe9, 0xed, 0x1c, 0xfb, 0xe5, 0x07, 0x1d, 0xe0, 0xe1, 0x10, 
  0xc2, 0x09, 0xfa, 0xa7, 0xf8, 0xde, 0xe6, 0xd4, 0xf4, 0x37, 0x0c, 0x06, 
  0x0d, 0xf3, 0xf5, 0xfe, 0xfb, 0x0e, 0xea, 0x0e, 0xbd, 0xe0, 0x22, 0x03, 
  0xf5, 0x1b, 0xcc, 0xda, 0x0b, 0x01, 0xf7, 0x0b, 0xe5, 0xd6, 0x07, 0x3d, 
  0xdd, 0xb4, 0x01, 0x04, 0xef, 0x47, 0x03, 0xf6, 0xe2, 0x21, 0x4f, 0x0e, 
  0x09, 0xde, 0x81, 0xc0, 0xe1, 0x0a, 0x1f, 0xfe, 0xc8, 0x15, 0x2a, 0xfd, 
  0x4a, 0xac, 0x23, 0x14, 0xdc, 0x32, 0xfd, 0x05, 0x2f, 0x3c, 0x03, 0x0c, 
  0xec, 0x06, 0x24, 0xf2, 0x07, 0xf9, 0x0f, 0xeb, 0xc8, 0x02, 0xf3, 0xf6, 
  0xfb, 0xf5, 0xf3, 0x10, 0xee, 0xfa, 0x17, 0x1e, 0xea, 0xfd, 0xf5, 0xf8, 
  0xe3, 0xfc, 0xdc, 0x12, 0xfb, 0x09, 0x13, 0xee, 0xdc, 0x05, 0x2b, 0xf5, 
  0x15, 0x1a, 0xf3, 0x04, 0xfc, 0x11, 0x19, 0xef, 0x21, 0x16, 0xe2, 0xeb, 
  0xeb, 0x44, 0x0f, 0xfe, 0x0a, 0x04, 0xfa, 0xef, 0x02, 0xec, 0xda, 0xeb, 
  0xf0, 0x09, 0xe7, 0xfd, 0xf7, 0x0b, 0xe6, 0x07, 0x06, 0xee, 0xd8, 0x13, 
  0x03, 0xfd, 0xeb, 0xde, 0x00, 0xee, 0xfb, 0xf2, 0xdb, 0xeb, 0x0e, 0xdc, 
  0xfe, 0xe3, 0xf7, 0xfb, 0xe9, 0xf7, 0xee, 0xe9, 0xf6, 0x27, 0x09, 0xff, 
  0x09, 0xfb, 0xea, 0xe7, 0x06, 0x09, 0x3e, 0xe5, 0x06, 0x0e, 0x17, 0xdc, 
  0xe5, 0xf1, 0x0d, 0xff, 0xcb, 0xff, 0xff, 0xe8, 0xef, 0xfd, 0xf8, 0x17, 
  0xfb, 0x07, 0xe6, 0xcb, 0x0a, 0xce, 0xec, 0xf1, 0x03, 0xef, 0x24, 0x27, 
  0x02, 0x08, 0x1a, 0xef, 0x07, 0x0c, 0xef, 0x01, 0xeb, 0x19, 0x03, 0x12, 
  0xec, 0x27, 0x10, 0xff, 0xf2, 0x10, 0xf7, 0x0f, 0xec, 0x0b, 0xdb, 0xd4, 
  0x15, 0xf4, 0xf3, 0xe7, 0x0a, 0xfc, 0x0e, 0xec, 0xfb, 0x14, 0x13, 0x08, 
  0x06, 0xe5, 0x0b, 0x17, 0xe1, 0xf3, 0xf4, 0x15, 0xe7, 0xe2, 0xee, 0xdd, 
  0x07, 0x08, 0xfc, 0xf3, 0xe7, 0xf7, 0xe6, 0xe1, 0xfc, 0xf8, 0xfb, 0xec, 
  0xfb, 0x13, 0xd8, 0x25, 0xf3, 0xe8, 0x01, 0xdf, 0x0b, 0x10, 0xf5, 0x08, 
  0xf2, 0xe3, 0xf8, 0xfb, 0x02, 0xf6, 0xf6, 0xdd, 0xff, 0x04, 0x00, 0x03, 
  0x36, 0xea, 0xca, 0xd4, 0xe4, 0x20, 0xf4, 0xd2, 0xf9, 0x04, 0xf5, 0x22, 
  0xd7, 0xe5, 0xb2, 0xdb, 0xee, 0xf7, 0xe5, 0x2d, 0xb0, 0x34, 0x08, 0x22, 
  0x0d, 0x11, 0xd6, 0x81, 0xba, 0x36, 0xf1, 0x11, 0xea, 0xfe, 0xff, 0xff, 
  0x04, 0x00, 0x00, 0x00, 0x40, 0x00, 0x00, 0x00, 0x1f, 0xff, 0xff, 0xff, 
  0x2c, 0xff, 0xff, 0xff, 0x18, 0xff, 0xff, 0xff, 0xc1, 0xff, 0xff, 0xff, 
  0xcf, 0xff, 0xff, 0xff, 0xf7, 0x00, 0x00, 0x00, 0x3c, 0xff, 0xff, 0xff, 
  0x16, 0x01, 0x00, 0x00, 0x50, 0xff, 0xff, 0xff, 0xde, 0xff, 0xff, 0xff, 
  0xc7, 0xff, 0xff, 0xff, 0x13, 0x02, 0x00, 0x00, 0x39, 0x01, 0x00, 0x00, 
  0x1a, 0xff, 0xff, 0xff, 0x09, 0x00, 0x00, 0x00, 0x4d, 0x01, 0x00, 0x00, 
  0x36, 0xff, 0xff, 0xff, 0x04, 0x00, 0x00, 0x00, 0x10, 0x00, 0x00, 0x00, 
  0xb3, 0x81, 0xb9, 0xc9, 0x96, 0x34, 0xde, 0x54, 0xc6, 0x4f, 0xb3, 0x2e, 
  0x56, 0x89, 0xc2, 0x52, 0x52, 0xff, 0xff, 0xff, 0x04, 0x00, 0x00, 0x00, 
  0x04, 0x00, 0x00, 0x00, 0xdf, 0x05, 0x00, 0x00, 0x62, 0xff, 0xff, 0xff, 
  0x04, 0x00, 0x00, 0x00, 0x08, 0x00, 0x00, 0x00, 0xff, 0xff, 0xff, 0xff, 
  0x00, 0x01, 0x00, 0x00, 0x76, 0xff, 0xff, 0xff, 0x04, 0x00, 0x00, 0x00, 
  0x0c, 0x00, 0x00, 0x00, 0xff, 0xff, 0xff, 0xff, 0x20, 0x00, 0x00, 0x00, 
  0x20, 0x00, 0x00, 0x00, 0x8e, 0xff, 0xff, 0xff, 0x04, 0x00, 0x00, 0x00, 
  0x0c, 0x00, 0x00, 0x00, 0xff, 0xff, 0xff, 0xff, 0x20, 0x00, 0x00, 0x00, 
  0x10, 0x00, 0x00, 0x00, 0xa6, 0xff, 0xff, 0xff, 0x04, 0x00, 0x00, 0x00, 
  0x0c, 0x00, 0x00, 0x00, 0xff, 0xff, 0xff, 0xff, 0x80, 0x00, 0x00, 0x00, 
  0x10, 0x00, 0x00, 0x00, 0xbe, 0xff, 0xff, 0xff, 0x04, 0x00, 0x00, 0x00, 
  0x0c, 0x00, 0x00, 0x00, 0xff, 0xff, 0xff, 0xff, 0x80, 0x00, 0x00, 0x00, 
  0x08, 0x00, 0x00, 0x00, 0xd6, 0xff, 0xff, 0xff, 0x04, 0x00, 0x00, 0x00, 
  0x04, 0x00, 0x00, 0x00, 0x02, 0x00, 0x00, 0x00, 0xe6, 0xff, 0xff, 0xff, 
  0x04, 0x00, 0x00, 0x00, 0x0c, 0x00, 0x00, 0x00, 0xff, 0xff, 0xff, 0xff, 
  0x00, 0x02, 0x00, 0x00, 0x08, 0x00, 0x00, 0x00, 0x00, 0x00, 0x06, 0x00, 
  0x08, 0x00, 0x04, 0x00, 0x06, 0x00, 0x00, 0x00, 0x04, 0x00, 0x00, 0x00, 
  0x04, 0x00, 0x00, 0x00, 0xfd, 0xff, 0xff, 0xff, 0x60, 0xdb, 0xff, 0xff, 
  0x64, 0xdb, 0xff, 0xff, 0x0f, 0x00, 0x00, 0x00, 0x4d, 0x4c, 0x49, 0x52, 
  0x20, 0x43, 0x6f, 0x6e, 0x76, 0x65, 0x72, 0x74, 0x65, 0x64, 0x2e, 0x00, 
  0x01, 0x00, 0x00, 0x00, 0x14, 0x00, 0x00, 0x00, 0x00, 0x00, 0x0e, 0x00, 
  0x18, 0x00, 0x14, 0x00, 0x10, 0x00, 0x0c, 0x00, 0x08, 0x00, 0x04, 0x00, 
  0x0e, 0x00, 0x00, 0x00, 0x14, 0x00, 0x00, 0x00, 0x1c, 0x00, 0x00, 0x00, 
  0xf4, 0x05, 0x00, 0x00, 0xf8, 0x05, 0x00, 0x00, 0xfc, 0x05, 0x00, 0x00, 
  0x04, 0x00, 0x00, 0x00, 0x6d, 0x61, 0x69, 0x6e, 0x00, 0x00, 0x00, 0x00, 
  0x1b, 0x00, 0x00, 0x00, 0xac, 0x05, 0x00, 0x00, 0x4c, 0x05, 0x00, 0x00, 
  0x14, 0x05, 0x00, 0x00, 0xd4, 0x04, 0x00, 0x00, 0xa0, 0x04, 0x00, 0x00, 
  0x70, 0x04, 0x00, 0x00, 0x1c, 0x04, 0x00, 0x00, 0xe4, 0x03, 0x00, 0x00, 
  0xb4, 0x03, 0x00, 0x00, 0x70, 0x03, 0x00, 0x00, 0x48, 0x03, 0x00, 0x00, 
  0x14, 0x03, 0x00, 0x00, 0xe0, 0x02, 0x00, 0x00, 0xb0, 0x02, 0x00, 0x00, 
  0x6c, 0x02, 0x00, 0x00, 0x44, 0x02, 0x00, 0x00, 0x14, 0x02, 0x00, 0x00, 
  0xd0, 0x01, 0x00, 0x00, 0xa8, 0x01, 0x00, 0x00, 0x74, 0x01, 0x00, 0x00, 
  0x40, 0x01, 0x00, 0x00, 0x10, 0x01, 0x00, 0x00, 0xcc, 0x00, 0x00, 0x00, 
  0xa4, 0x00, 0x00, 0x00, 0x60, 0x00, 0x00, 0x00, 0x28, 0x00, 0x00, 0x00, 
  0x04, 0x00, 0x00, 0x00, 0x5a, 0xfb, 0xff, 0xff, 0x0c, 0x00, 0x00, 0x00, 
  0x10, 0x00, 0x00, 0x00, 0x07, 0x00, 0x00, 0x00, 0x01, 0x00, 0x00, 0x00, 
  0x33, 0x00, 0x00, 0x00, 0x01, 0x00, 0x00, 0x00, 0x32, 0x00, 0x00, 0x00, 
  0x4a, 0xfb, 0xff, 0xff, 0x14, 0x00, 0x00, 0x00, 0x00, 0x00, 0x00, 0x08, 
  0x10, 0x00, 0x00, 0x00, 0x14, 0x00, 0x00, 0x00, 0x06, 0x00, 0x00, 0x00, 
  0x60, 0xdc, 0xff, 0xff, 0x01, 0x00, 0x00, 0x00, 0x32, 0x00, 0x00, 0x00, 
  0x03, 0x00, 0x00, 0x00, 0x31, 0x00, 0x00, 0x00, 0x0a, 0x00, 0x00, 0x00, 
  0x09, 0x00, 0x00, 0x00, 0x9a, 0xfc, 0xff, 0xff, 0x1c, 0x00, 0x00, 0x00, 
  0x00, 0x00, 0x00, 0x08, 0x1c, 0x00, 0x00, 0x00, 0x20, 0x00, 0x00, 0x00, 
  0x06, 0x00, 0x00, 0x00, 0x00, 0x00, 0x06, 0x00, 0x08, 0x00, 0x07, 0x00, 
  0x06, 0x00, 0x00, 0x00, 0x00, 0x00, 0x00, 0x01, 0x01, 0x00, 0x00, 0x00, 
  0x31, 0x00, 0x00, 0x00, 0x03, 0x00, 0x00, 0x00, 0x30, 0x00, 0x00, 0x00, 
  0x0c, 0x00, 0x00, 0x00, 0x0b, 0x00, 0x00, 0x00, 0xee, 0xfb, 0xff, 0xff, 
  0x0c, 0x00, 0x00, 0x00, 0x10, 0x00, 0x00, 0x00, 0x02, 0x00, 0x00, 0x00, 
  0x01, 0x00, 0x00, 0x00, 0x30, 0x00, 0x00, 0x00, 0x02, 0x00, 0x00, 0x00, 
  0x2f, 0x00, 0x00, 0x00, 0x08, 0x00, 0x00, 0x00, 0xe2, 0xfb, 0xff, 0xff, 
  0x14, 0x00, 0x00, 0x00, 0x00, 0x00, 0x00, 0x05, 0x24, 0x00, 0x00, 0x00, 
  0x28, 0x00, 0x00, 0x00, 0x05, 0x00, 0x00, 0x00, 0xee, 0xfc, 0xff, 0xff, 
  0x04, 0x00, 0x00, 0x00, 0x01, 0x00, 0x00, 0x00, 0x04, 0x00, 0x00, 0x00, 
  0x01, 0x00, 0x00, 0x00, 0x00, 0x00, 0x00, 0x01, 0x01, 0x00, 0x00, 0x00, 
  0x2f, 0x00, 0x00, 0x00, 0x01, 0x00, 0x00, 0x00, 0x2e, 0x00, 0x00, 0x00, 
  0xc6, 0xfb, 0xff, 0xff, 0x10, 0x00, 0x00, 0x00, 0x00, 0x00, 0x00, 0x34, 
  0x0c, 0x00, 0x00, 0x00, 0x10, 0x00, 0x00, 0x00, 0x34, 0xdd, 0xff, 0xff, 
  0x01, 0x00, 0x00, 0x00, 0x2e, 0x00, 0x00, 0x00, 0x02, 0x00, 0x00, 0x00, 
  0x2d, 0x00, 0x00, 0x00, 0x03, 0x00, 0x00, 0x00, 0x4e, 0xfc, 0xff, 0xff, 
  0x14, 0x00, 0x00, 0x00, 0x00, 0x00, 0x00, 0x0b, 0x10, 0x00, 0x00, 0x00, 
  0x14, 0x00, 0x00, 0x00, 0x04, 0x00, 0x00, 0x00, 0x64, 0xdd, 0xff, 0xff, 
  0x01, 0x00, 0x00, 0x00, 0x2d, 0x00, 0x00, 0x00, 0x02, 0x00, 0x00, 0x00, 
  0x2c, 0x00, 0x00, 0x00, 0x0d, 0x00, 0x00, 0x00, 0x7e, 0xfc, 0xff, 0xff, 
  0x14, 0x00, 0x00, 0x00, 0x00, 0x00, 0x00, 0x15, 0x10, 0x00, 0x00, 0x00, 
  0x14, 0x00, 0x00, 0x00, 0x03, 0x00, 0x00, 0x00, 0x94, 0xdd, 0xff, 0xff, 
  0x01, 0x00, 0x00, 0x00, 0x2c, 0x00, 0x00, 0x00, 0x02, 0x00, 0x00, 0x00, 
  0x2b, 0x00, 0x00, 0x00, 0x0e, 0x00, 0x00, 0x00, 0xde, 0xfc, 0xff, 0xff, 
  0x0c, 0x00, 0x00, 0x00, 0x10, 0x00, 0x00, 0x00, 0x02, 0x00, 0x00, 0x00, 
  0x01, 0x00, 0x00, 0x00, 0x2b, 0x00, 0x00, 0x00, 0x02, 0x00, 0x00, 0x00, 
  0x2a, 0x00, 0x00, 0x00, 0x07, 0x00, 0x00, 0x00, 0xd2, 0xfc, 0xff, 0xff, 
  0x14, 0x00, 0x00, 0x00, 0x00, 0x00, 0x00, 0x01, 0x1c, 0x00, 0x00, 0x00, 
  0x20, 0x00, 0x00, 0x00, 0x01, 0x00, 0x00, 0x00, 0xc4, 0xfc, 0xff, 0xff, 
  0x00, 0x00, 0x00, 0x01, 0x01, 0x00, 0x00, 0x00, 0x01, 0x00, 0x00, 0x00, 
  0x01, 0x00, 0x00, 0x00, 0x2a, 0x00, 0x00, 0x00, 0x03, 0x00, 0x00, 0x00, 
  0x28, 0x00, 0x00, 0x00, 0x29, 0x00, 0x00, 0x00, 0x0f, 0x00, 0x00, 0x00, 
  0xb6, 0xfc, 0xff, 0xff, 0x10, 0x00, 0x00, 0x00, 0x00, 0x00, 0x00, 0x34, 
  0x0c, 0x00, 0x00, 0x00, 0x10, 0x00, 0x00, 0x00, 0x24, 0xde, 0xff, 0xff, 
  0x01, 0x00, 0x00, 0x00, 0x28, 0x00, 0x00, 0x00, 0x02, 0x00, 0x00, 0x00, 
  0x27, 0x00, 0x00, 0x00, 0x01, 0x00, 0x00, 0x00, 0x6e, 0xfd, 0xff, 0xff, 
  0x0c, 0x00, 0x00, 0x00, 0x10, 0x00, 0x00, 0x00, 0x02, 0x00, 0x00, 0x00, 
  0x01, 0x00, 0x00, 0x00, 0x27, 0x00, 0x00, 0x00, 0x02, 0x00, 0x00, 0x00, 
  0x26, 0x00, 0x00, 0x00, 0x06, 0x00, 0x00, 0x00, 0x62, 0xfd, 0xff, 0xff, 
  0x14, 0x00, 0x00, 0x00, 0x00, 0x00, 0x00, 0x05, 0x24, 0x00, 0x00, 0x00, 
  0x28, 0x00, 0x00, 0x00, 0x05, 0x00, 0x00, 0x00, 0x6e, 0xfe, 0xff, 0xff, 
  0x04, 0x00, 0x00, 0x00, 0x01, 0x00, 0x00, 0x00, 0x04, 0x00, 0x00, 0x00, 
  0x01, 0x00, 0x00, 0x00, 0x00, 0x00, 0x00, 0x01, 0x01, 0x00, 0x00, 0x00, 
  0x26, 0x00, 0x00, 0x00, 0x01, 0x00, 0x00, 0x00, 0x25, 0x00, 0x00, 0x00, 
  0x46, 0xfd, 0xff, 0xff, 0x10, 0x00, 0x00, 0x00, 0x00, 0x00, 0x00, 0x34, 
  0x0c, 0x00, 0x00, 0x00, 0x10, 0x00, 0x00, 0x00, 0xb4, 0xde, 0xff, 0xff, 
  0x01, 0x00, 0x00, 0x00, 0x25, 0x00, 0x00, 0x00, 0x02, 0x00, 0x00, 0x00, 
  0x24, 0x00, 0x00, 0x00, 0x03, 0x00, 0x00, 0x00, 0xce, 0xfd, 0xff, 0xff, 
  0x14, 0x00, 0x00, 0x00, 0x00, 0x00, 0x00, 0x0b, 0x10, 0x00, 0x00, 0x00, 
  0x14, 0x00, 0x00, 0x00, 0x04, 0x00, 0x00, 0x00, 0xe4, 0xde, 0xff, 0xff, 
  0x01, 0x00, 0x00, 0x00, 0x24, 0x00, 0x00, 0x00, 0x02, 0x00, 0x00, 0x00, 
  0x23, 0x00, 0x00, 0x00, 0x10, 0x00, 0x00, 0x00, 0xfe, 0xfd, 0xff, 0xff, 
  0x14, 0x00, 0x00, 0x00, 0x00, 0x00, 0x00, 0x15, 0x10, 0x00, 0x00, 0x00, 
  0x14, 0x00, 0x00, 0x00, 0x03, 0x00, 0x00, 0x00, 0x14, 0xdf, 0xff, 0xff, 
  0x01, 0x00, 0x00, 0x00, 0x23, 0x00, 0x00, 0x00, 0x02, 0x00, 0x00, 0x00, 
  0x22, 0x00, 0x00, 0x00, 0x11, 0x00, 0x00, 0x00, 0x5e, 0xfe, 0xff, 0xff, 
  0x0c, 0x00, 0x00, 0x00, 0x10, 0x00, 0x00, 0x00, 0x02, 0x00, 0x00, 0x00, 
  0x01, 0x00, 0x00, 0x00, 0x22, 0x00, 0x00, 0x00, 0x02, 0x00, 0x00, 0x00, 
  0x21, 0x00, 0x00, 0x00, 0x05, 0x00, 0x00, 0x00, 0x52, 0xfe, 0xff, 0xff, 
  0x14, 0x00, 0x00, 0x00, 0x00, 0x00, 0x00, 0x01, 0x1c, 0x00, 0x00, 0x00, 
  0x20, 0x00, 0x00, 0x00, 0x01, 0x00, 0x00, 0x00, 0x44, 0xfe, 0xff, 0xff, 
  0x00, 0x00, 0x00, 0x01, 0x01, 0x00, 0x00, 0x00, 0x01, 0x00, 0x00, 0x00, 
  0x01, 0x00, 0x00, 0x00, 0x21, 0x00, 0x00, 0x00, 0x03, 0x00, 0x00, 0x00, 
  0x1f, 0x00, 0x00, 0x00, 0x20, 0x00, 0x00, 0x00, 0x12, 0x00, 0x00, 0x00, 
  0x36, 0xfe, 0xff, 0xff, 0x10, 0x00, 0x00, 0x00, 0x00, 0x00, 0x00, 0x34, 
  0x0c, 0x00, 0x00, 0x00, 0x10, 0x00, 0x00, 0x00, 0xa4, 0xdf, 0xff, 0xff, 
  0x01, 0x00, 0x00, 0x00, 0x1f, 0x00, 0x00, 0x00, 0x02, 0x00, 0x00, 0x00, 
  0x1e, 0x00, 0x00, 0x00, 0x01, 0x00, 0x00, 0x00, 0xee, 0xfe, 0xff, 0xff, 
  0x0c, 0x00, 0x00, 0x00, 0x10, 0x00, 0x00, 0x00, 0x02, 0x00, 0x00, 0x00, 
  0x01, 0x00, 0x00, 0x00, 0x1e, 0x00, 0x00, 0x00, 0x02, 0x00, 0x00, 0x00, 
  0x1d, 0x00, 0x00, 0x00, 0x04, 0x00, 0x00, 0x00, 0x00, 0x00, 0x0e, 0x00, 
  0x1a, 0x00, 0x14, 0x00, 0x10, 0x00, 0x0c, 0x00, 0x0b, 0x00, 0x04, 0x00, 
  0x0e, 0x00, 0x00, 0x00, 0x24, 0x00, 0x00, 0x00, 0x00, 0x00, 0x00, 0x05, 
  0x34, 0x00, 0x00, 0x00, 0x38, 0x00, 0x00, 0x00, 0x05, 0x00, 0x00, 0x00, 
  0x00, 0x00, 0x0e, 0x00, 0x18, 0x00, 0x17, 0x00, 0x10, 0x00, 0x0c, 0x00, 
  0x08, 0x00, 0x04, 0x00, 0x0e, 0x00, 0x00, 0x00, 0x04, 0x00, 0x00, 0x00, 
  0x01, 0x00, 0x00, 0x00, 0x04, 0x00, 0x00, 0x00, 0x01, 0x00, 0x00, 0x00, 
  0x00, 0x00, 0x00, 0x01, 0x01, 0x00, 0x00, 0x00, 0x1d, 0x00, 0x00, 0x00, 
  0x01, 0x00, 0x00, 0x00, 0x1c, 0x00, 0x00, 0x00, 0xe6, 0xfe, 0xff, 0xff, 
  0x10, 0x00, 0x00, 0x00, 0x00, 0x00, 0x00, 0x34, 0x0c, 0x00, 0x00, 0x00, 
  0x10, 0x00, 0x00, 0x00, 0x54, 0xe0, 0xff, 0xff, 0x01, 0x00, 0x00, 0x00, 
  0x1c, 0x00, 0x00, 0x00, 0x02, 0x00, 0x00, 0x00, 0x1b, 0x00, 0x00, 0x00, 
  0x03, 0x00, 0x00, 0x00, 0x6e, 0xff, 0xff, 0xff, 0x14, 0x00, 0x00, 0x00, 
  0x00, 0x00, 0x00, 0x0b, 0x10, 0x00, 0x00, 0x00, 0x14, 0x00, 0x00, 0x00, 
  0x04, 0x00, 0x00, 0x00, 0x84, 0xe0, 0xff, 0xff, 0x01, 0x00, 0x00, 0x00, 
  0x1b, 0x00, 0x00, 0x00, 0x02, 0x00, 0x00, 0x00, 0x1a, 0x00, 0x00, 0x00, 
  0x13, 0x00, 0x00, 0x00, 0x9e, 0xff, 0xff, 0xff, 0x14, 0x00, 0x00, 0x00, 
  0x00, 0x00, 0x00, 0x15, 0x10, 0x00, 0x00, 0x00, 0x14, 0x00, 0x00, 0x00, 
  0x03, 0x00, 0x00, 0x00, 0xb4, 0xe0, 0xff, 0xff, 0x01, 0x00, 0x00, 0x00, 
  0x1a, 0x00, 0x00, 0x00, 0x02, 0x00, 0x00, 0x00, 0x19, 0x00, 0x00, 0x00, 
  0x14, 0x00, 0x00, 0x00, 0x00, 0x00, 0x0a, 0x00, 0x10, 0x00, 0x0c, 0x00, 
  0x08, 0x00, 0x04, 0x00, 0x0a, 0x00, 0x00, 0x00, 0x0c, 0x00, 0x00, 0x00, 
  0x10, 0x00, 0x00, 0x00, 0x02, 0x00, 0x00, 0x00, 0x01, 0x00, 0x00, 0x00, 
  0x19, 0x00, 0x00, 0x00, 0x02, 0x00, 0x00, 0x00, 0x18, 0x00, 0x00, 0x00, 
  0x02, 0x00, 0x00, 0x00, 0x00, 0x00, 0x0e, 0x00, 0x18, 0x00, 0x14, 0x00, 
  0x10, 0x00, 0x0c, 0x00, 0x0b, 0x00, 0x04, 0x00, 0x0e, 0x00, 0x00, 0x00, 
  0x20, 0x00, 0x00, 0x00, 0x00, 0x00, 0x00, 0x01, 0x28, 0x00, 0x00, 0x00, 
  0x2c, 0x00, 0x00, 0x00, 0x01, 0x00, 0x00, 0x00, 0x0c, 0x00, 0x10, 0x00, 
  0x00, 0x00, 0x0c, 0x00, 0x08, 0x00, 0x07, 0x00, 0x0c, 0x00, 0x00, 0x00, 
  0x00, 0x00, 0x00, 0x01, 0x01, 0x00, 0x00, 0x00, 0x01, 0x00, 0x00, 0x00, 
  0x01, 0x00, 0x00, 0x00, 0x18, 0x00, 0x00, 0x00, 0x03, 0x00, 0x00, 0x00, 
  0x15, 0x00, 0x00, 0x00, 0x16, 0x00, 0x00, 0x00, 0x17, 0x00, 0x00, 0x00, 
  0x00, 0x00, 0x0e, 0x00, 0x14, 0x00, 0x00, 0x00, 0x10, 0x00, 0x0c, 0x00, 
  0x0b, 0x00, 0x04, 0x00, 0x0e, 0x00, 0x00, 0x00, 0x10, 0x00, 0x00, 0x00, 
  0x00, 0x00, 0x00, 0x34, 0x0c, 0x00, 0x00, 0x00, 0x10, 0x00, 0x00, 0x00, 
  0x7c, 0xe1, 0xff, 0xff, 0x01, 0x00, 0x00, 0x00, 0x15, 0x00, 0x00, 0x00, 
  0x02, 0x00, 0x00, 0x00, 0x00, 0x00, 0x00, 0x00, 0x01, 0x00, 0x00, 0x00, 
  0x01, 0x00, 0x00, 0x00, 0x33, 0x00, 0x00, 0x00, 0x01, 0x00, 0x00, 0x00, 
  0x00, 0x00, 0x00, 0x00, 0x34, 0x00, 0x00, 0x00, 0x90, 0x1e, 0x00, 0x00, 
  0x38, 0x1e, 0x00, 0x00, 0xcc, 0x1d, 0x00, 0x00, 0x90, 0x1d, 0x00, 0x00, 
  0x44, 0x1d, 0x00, 0x00, 0xf0, 0x1c, 0x00, 0x00, 0xa0, 0x1c, 0x00, 0x00, 
  0x4c, 0x1c, 0x00, 0x00, 0x0c, 0x1c, 0x00, 0x00, 0xa4, 0x1b, 0x00, 0x00, 
  0x38, 0x1b, 0x00, 0x00, 0x0c, 0x1a, 0x00, 0x00, 0xf0, 0x18, 0x00, 0x00, 
  0x74, 0x18, 0x00, 0x00, 0xf8, 0x17, 0x00, 0x00, 0x04, 0x17, 0x00, 0x00, 
  0x88, 0x16, 0x00, 0x00, 0x0c, 0x16, 0x00, 0x00, 0x18, 0x15, 0x00, 0x00, 
  0xa4, 0x14, 0x00, 0x00, 0x30, 0x14, 0x00, 0x00, 0x94, 0x13, 0x00, 0x00, 
  0x20, 0x13, 0x00, 0x00, 0x34, 0x12, 0x00, 0x00, 0x28, 0x11, 0x00, 0x00, 
  0x40, 0x10, 0x00, 0x00, 0xac, 0x0f, 0x00, 0x00, 0x18, 0x0f, 0x00, 0x00, 
  0x88, 0x0e, 0x00, 0x00, 0xfc, 0x0d, 0x00, 0x00, 0x74, 0x0d, 0x00, 0x00, 
  0xdc, 0x0c, 0x00, 0x00, 0x68, 0x0c, 0x00, 0x00, 0x54, 0x0b, 0x00, 0x00, 
  0x64, 0x0a, 0x00, 0x00, 0xd0, 0x09, 0x00, 0x00, 0x3c, 0x09, 0x00, 0x00, 
  0xa4, 0x08, 0x00, 0x00, 0x10, 0x08, 0x00, 0x00, 0x88, 0x07, 0x00, 0x00, 
  0xf0, 0x06, 0x00, 0x00, 0x7c, 0x06, 0x00, 0x00, 0x68, 0x05, 0x00, 0x00, 
  0x78, 0x04, 0x00, 0x00, 0xe4, 0x03, 0x00, 0x00, 0x50, 0x03, 0x00, 0x00, 
  0xb8, 0x02, 0x00, 0x00, 0x24, 0x02, 0x00, 0x00, 0xa8, 0x01, 0x00, 0x00, 
  0x0c, 0x01, 0x00, 0x00, 0x80, 0x00, 0x00, 0x00, 0x04, 0x00, 0x00, 0x00, 
  0x56, 0xe2, 0xff, 0xff, 0x00, 0x00, 0x00, 0x01, 0x18, 0x00, 0x00, 0x00, 
  0x20, 0x00, 0x00, 0x00, 0x3c, 0x00, 0x00, 0x00, 0x34, 0x00, 0x00, 0x00, 
  0x00, 0x00, 0x00, 0x09, 0x50, 0x00, 0x00, 0x00, 0x02, 0x00, 0x00, 0x00, 
  0xff, 0xff, 0xff, 0xff, 0x01, 0x00, 0x00, 0x00, 0x3c, 0xe2, 0xff, 0xff, 
  0x08, 0x00, 0x00, 0x00, 0x10, 0x00, 0x00, 0x00, 0x01, 0x00, 0x00, 0x00, 
  0x80, 0xff, 0xff, 0xff, 0xff, 0xff, 0xff, 0xff, 0x01, 0x00, 0x00, 0x00, 
  0x00, 0x00, 0x80, 0x3b, 0x19, 0x00, 0x00, 0x00, 0x53, 0x74, 0x61, 0x74, 
  0x65, 0x66, 0x75, 0x6c, 0x50, 0x61, 0x72, 0x74, 0x69, 0x74, 0x69, 0x6f, 
  0x6e, 0x65, 0x64, 0x43, 0x61, 0x6c, 0x6c, 0x3a, 0x30, 0x00, 0x00, 0x00, 
  0x02, 0x00, 0x00, 0x00, 0x01, 0x00, 0x00, 0x00, 0x01, 0x00, 0x00, 0x00, 
  0xce, 0xe2, 0xff, 0xff, 0x00, 0x00, 0x00, 0x01, 0x18, 0x00, 0x00, 0x00, 
  0x20, 0x00, 0x00, 0x00, 0x3c, 0x00, 0x00, 0x00, 0x33, 0x00, 0x00, 0x00, 
  0x00, 0x00, 0x00, 0x09, 0x60, 0x00, 0x00, 0x00, 0x02, 0x00, 0x00, 0x00, 
  0xff, 0xff, 0xff, 0xff, 0x01, 0x00, 0x00, 0x00, 0xb4, 0xe2, 0xff, 0xff, 
  0x08, 0x00, 0x00, 0x00, 0x10, 0x00, 0x00, 0x00, 0x01, 0x00, 0x00, 0x00, 
  0x2b, 0x00, 0x00, 0x00, 0x00, 0x00, 0x00, 0x00, 0x01, 0x00, 0x00, 0x00, 
  0x6c, 0x12, 0xe7, 0x3d, 0x2a, 0x00, 0x00, 0x00, 0x6d, 0x6f, 0x64, 0x65, 
  0x6c, 0x2f, 0x64, 0x65, 0x6e, 0x73, 0x65, 0x5f, 0x31, 0x2f, 0x4d, 0x61, 
  0x74, 0x4d, 0x75, 0x6c, 0x3b, 0x6d, 0x6f, 0x64, 0x65, 0x6c, 0x2f, 0x64, 
  0x65, 0x6e, 0x73, 0x65, 0x5f, 0x31, 0x2f, 0x42, 0x69, 0x61, 0x73, 0x41, 
  0x64, 0x64, 0x00, 0x00, 0x02, 0x00, 0x00, 0x00, 0x01, 0x00, 0x00, 0x00, 
  0x01, 0x00, 0x00, 0x00, 0x56, 0xe3, 0xff, 0xff, 0x00, 0x00, 0x00, 0x01, 
  0x18, 0x00, 0x00, 0x00, 0x20, 0x00, 0x00, 0x00, 0x40, 0x00, 0x00, 0x00, 
  0x32, 0x00, 0x00, 0x00, 0x00, 0x00, 0x00, 0x09, 0x70, 0x00, 0x00, 0x00, 
  0x02, 0x00, 0x00, 0x00, 0xff, 0xff, 0xff, 0xff, 0x10, 0x00, 0x00, 0x00, 
  0x3c, 0xe3, 0xff, 0xff, 0x08, 0x00, 0x00, 0x00, 0x14, 0x00, 0x00, 0x00, 
  0x01, 0x00, 0x00, 0x00, 0x80, 0xff, 0xff, 0xff, 0xff, 0xff, 0xff, 0xff, 
  0x00, 0x00, 0x00, 0x00, 0x01, 0x00, 0x00, 0x00, 0xc4, 0x6d, 0xb5, 0x3d, 
  0x37, 0x00, 0x00, 0x00, 0x6d, 0x6f, 0x64, 0x65, 0x6c, 0x2f, 0x64, 0x65, 
  0x6e, 0x73, 0x65, 0x2f, 0x4d, 0x61, 0x74, 0x4d, 0x75, 0x6c, 0x3b, 0x6d, 
  0x6f, 0x64, 0x65, 0x6c, 0x2f, 0x64, 0x65, 0x6e, 0x73, 0x65, 0x2f, 0x52, 
  0x65, 0x6c, 0x75, 0x3b, 0x6d, 0x6f, 0x64, 0x65, 0x6c, 0x2f, 0x64, 0x65, 
  0x6e, 0x73, 0x65, 0x2f, 0x42, 0x69, 0x61, 0x73, 0x41, 0x64, 0x64, 0x00, 
  0x02, 0x00, 0x00, 0x00, 0x01, 0x00, 0x00, 0x00, 0x10, 0x00, 0x00, 0x00, 
  0xee, 0xe3, 0xff, 0xff, 0x00, 0x00, 0x00, 0x01, 0x18, 0x00, 0x00, 0x00, 
  0x20, 0x00, 0x00, 0x00, 0x40, 0x00, 0x00, 0x00, 0x31, 0x00, 0x00, 0x00, 
  0x00, 0x00, 0x00, 0x09, 0x50, 0x00, 0x00, 0x00, 0x02, 0x00, 0x00, 0x00, 
  0xff, 0xff, 0xff, 0xff, 0x00, 0x01, 0x00, 0x00, 0xd4, 0xe3, 0xff, 0xff, 
  0x08, 0x00, 0x00, 0x00, 0x14, 0x00, 0x00, 0x00, 0x01, 0x00, 0x00, 0x00, 
  0x8c, 0xff, 0xff, 0xff, 0xff, 0xff, 0xff, 0xff, 0x00, 0x00, 0x00, 0x00, 
  0x01, 0x00, 0x00, 0x00, 0x18, 0xa8, 0x0b, 0x3e, 0x15, 0x00, 0x00, 0x00, 
  0x6d, 0x6f, 0x64, 0x65, 0x6c, 0x2f, 0x66, 0x6c, 0x61, 0x74, 0x74, 0x65, 
  0x6e, 0x2f, 0x52, 0x65, 0x73, 0x68, 0x61, 0x70, 0x65, 0x00, 0x00, 0x00, 
  0x02, 0x00, 0x00, 0x00, 0x01, 0x00, 0x00, 0x00, 0x00, 0x01, 0x00, 0x00, 
  0x66, 0xe4, 0xff, 0xff, 0x00, 0x00, 0x00, 0x01, 0x18, 0x00, 0x00, 0x00, 
  0x28, 0x00, 0x00, 0x00, 0x48, 0x00, 0x00, 0x00, 0x30, 0x00, 0x00, 0x00, 
  0x00, 0x00, 0x00, 0x09, 0x60, 0x00, 0x00, 0x00, 0x04, 0x00, 0x00, 0x00, 
  0xff, 0xff, 0xff, 0xff, 0x08, 0x00, 0x00, 0x00, 0x01, 0x00, 0x00, 0x00, 
  0x20, 0x00, 0x00, 0x00, 0x54, 0xe4, 0xff, 0xff, 0x08, 0x00, 0x00, 0x00, 
  0x14, 0x00, 0x00, 0x00, 0x01, 0x00, 0x00, 0x00, 0x8c, 0xff, 0xff, 0xff, 
  0xff, 0xff, 0xff, 0xff, 0x00, 0x00, 0x00, 0x00, 0x01, 0x00, 0x00, 0x00, 
  0x18, 0xa8, 0x0b, 0x3e, 0x1d, 0x00, 0x00, 0x00, 0x6d, 0x6f, 0x64, 0x65, 
  0x6c, 0x2f, 0x6d, 0x61, 0x78, 0x5f, 0x70, 0x6f, 0x6f, 0x6c, 0x69, 0x6e, 
  0x67, 0x31, 0x64, 0x5f, 0x32, 0x2f, 0x4d, 0x61, 0x78, 0x50, 0x6f, 0x6f, 
  0x6c, 0x00, 0x00, 0x00, 0x04, 0x00, 0x00, 0x00, 0x01, 0x00, 0x00, 0x00, 
  0x08, 0x00, 0x00, 0x00, 0x01, 0x00, 0x00, 0x00, 0x20, 0x00, 0x00, 0x00, 
  0xf6, 0xe4, 0xff, 0xff, 0x00, 0x00, 0x00, 0x01, 0x18, 0x00, 0x00, 0x00, 
  0x28, 0x00, 0x00, 0x00, 0x48, 0x00, 0x00, 0x00, 0x2f, 0x00, 0x00, 0x00, 
  0x00, 0x00, 0x00, 0x09, 0x64, 0x00, 0x00, 0x00, 0x04, 0x00, 0x00, 0x00, 
  0xff, 0xff, 0xff, 0xff, 0x20, 0x00, 0x00, 0x00, 0x01, 0x00, 0x00, 0x00, 
  0x20, 0x00, 0x00, 0x00, 0xe4, 0xe4, 0xff, 0xff, 0x08, 0x00, 0x00, 0x00, 
  0x14, 0x00, 0x00, 0x00, 0x01, 0x00, 0x00, 0x00, 0x8c, 0xff, 0xff, 0xff, 
  0xff, 0xff, 0xff, 0xff, 0x00, 0x00, 0x00, 0x00, 0x01, 0x00, 0x00, 0x00, 
  0x18, 0xa8, 0x0b, 0x3e, 0x20, 0x00, 0x00, 0x00, 0x6d, 0x6f, 0x64, 0x65, 
  0x6c, 0x2f, 0x6d, 0x61, 0x78, 0x5f, 0x70, 0x6f, 0x6f, 0x6c, 0x69, 0x6e, 
  0x67, 0x31, 0x64, 0x5f, 0x32, 0x2f, 0x45, 0x78, 0x70, 0x61, 0x6e, 0x64, 
  0x44, 0x69, 0x6d, 0x73, 0x00, 0x00, 0x00, 0x00, 0x04, 0x00, 0x00, 0x00, 
  0x01, 0x00, 0x00, 0x00, 0x20, 0x00, 0x00, 0x00, 0x01, 0x00, 0x00, 0x00, 
  0x20, 0x00, 0x00, 0x00, 0x8a, 0xe5, 0xff, 0xff, 0x00, 0x00, 0x00, 0x01, 
  0x18, 0x00, 0x00, 0x00, 0x24, 0x00, 0x00, 0x00, 0x40, 0x00, 0x00, 0x00, 
  0x2e, 0x00, 0x00, 0x00, 0x00, 0x00, 0x00, 0x09, 0x64, 0x00, 0x00, 0x00, 
  0x03, 0x00, 0x00, 0x00, 0xff, 0xff, 0xff, 0xff, 0x20, 0x00, 0x00, 0x00, 
  0x20, 0x00, 0x00, 0x00, 0x74, 0xe5, 0xff, 0xff, 0x08, 0x00, 0x00, 0x00, 
  0x10, 0x00, 0x00, 0x00, 0x01, 0x00, 0x00, 0x00, 0x8c, 0xff, 0xff, 0xff, 
  0xff, 0xff, 0xff, 0xff, 0x01, 0x00, 0x00, 0x00, 0x18, 0xa8, 0x0b, 0x3e, 
  0x2b, 0x00, 0x00, 0x00, 0x6d, 0x6f, 0x64, 0x65, 0x6c, 0x2f, 0x62, 0x61, 
  0x74, 0x63, 0x68, 0x5f, 0x6e, 0x6f, 0x72, 0x6d, 0x61, 0x6c, 0x69, 0x7a, 
  0x61, 0x74, 0x69, 0x6f, 0x6e, 0x5f, 0x32, 0x2f, 0x62, 0x61, 0x74, 0x63, 
  0x68, 0x6e, 0x6f, 0x72, 0x6d, 0x2f, 0x61, 0x64, 0x64, 0x5f, 0x31, 0x00, 
  0x03, 0x00, 0x00, 0x00, 0x01, 0x00, 0x00, 0x00, 0x20, 0x00, 0x00, 0x00, 
  0x20, 0x00, 0x00, 0x00, 0x1a, 0xe6, 0xff, 0xff, 0x00, 0x00, 0x00, 0x01, 
  0x18, 0x00, 0x00, 0x00, 0x24, 0x00, 0x00, 0x00, 0x40, 0x00, 0x00, 0x00, 
  0x2d, 0x00, 0x00, 0x00, 0x00, 0x00, 0x00, 0x09, 0x64, 0x00, 0x00, 0x00, 
  0x03, 0x00, 0x00, 0x00, 0xff, 0xff, 0xff, 0xff, 0x20, 0x00, 0x00, 0x00, 
  0x20, 0x00, 0x00, 0x00, 0x04, 0xe6, 0xff, 0xff, 0x08, 0x00, 0x00, 0x00, 
  0x10, 0x00, 0x00, 0x00, 0x01, 0x00, 0x00, 0x00, 0x8c, 0xff, 0xff, 0xff, 
  0xff, 0xff, 0xff, 0xff, 0x01, 0x00, 0x00, 0x00, 0x9c, 0x6d, 0x0d, 0x3e, 
  0x2b, 0x00, 0x00, 0x00, 0x6d, 0x6f, 0x64, 0x65, 0x6c, 0x2f, 0x62, 0x61, 
  0x74, 0x63, 0x68, 0x5f, 0x6e, 0x6f, 0x72, 0x6d, 0x61, 0x6c, 0x69, 0x7a, 
  0x61, 0x74, 0x69, 0x6f, 0x6e, 0x5f, 0x32, 0x2f, 0x62, 0x61, 0x74, 0x63, 
  0x68, 0x6e, 0x6f, 0x72, 0x6d, 0x2f, 0x6d, 0x75, 0x6c, 0x5f, 0x31, 0x00, 
  0x03, 0x00, 0x00, 0x00, 0x01, 0x00, 0x00, 0x00, 0x20, 0x00, 0x00, 0x00, 
  0x20, 0x00, 0x00, 0x00, 0xaa, 0xe6, 0xff, 0xff, 0x00, 0x00, 0x00, 0x01, 
  0x18, 0x00, 0x00, 0x00, 0x24, 0x00, 0x00, 0x00, 0x40, 0x00, 0x00, 0x00, 
  0x2c, 0x00, 0x00, 0x00, 0x00, 0x00, 0x00, 0x09, 0xc0, 0x00, 0x00, 0x00, 
  0x03, 0x00, 0x00, 0x00, 0xff, 0xff, 0xff, 0xff, 0x20, 0x00, 0x00, 0x00, 
  0x20, 0x00, 0x00, 0x00, 0x94, 0xe6, 0xff, 0xff, 0x08, 0x00, 0x00, 0x00, 
  0x10, 0x00, 0x00, 0x00, 0x01, 0x00, 0x00, 0x00, 0x00, 0x00, 0x00, 0x00, 
  0x00, 0x00, 0x00, 0x00, 0x01, 0x00, 0x00, 0x00, 0x94, 0x42, 0xfa, 0x3d, 
  0x86, 0x00, 0x00, 0x00, 0x6d, 0x6f, 0x64, 0x65, 0x6c, 0x2f, 0x71, 0x75, 
  0x61, 0x6e, 0x74, 0x5f, 0x63, 0x6f, 0x6e, 0x76, 0x31, 0x64, 0x5f, 0x32, 
  0x2f, 0x52, 0x65, 0x6c, 0x75, 0x3b, 0x6d, 0x6f, 0x64, 0x65, 0x6c, 0x2f, 
  0x71, 0x75, 0x61, 0x6e, 0x74, 0x5f, 0x63, 0x6f, 0x6e, 0x76, 0x31, 0x64, 
  0x5f, 0x32, 0x2f, 0x42, 0x69, 0x61, 0x73, 0x41, 0x64, 0x64, 0x3b, 0x6d, 
  0x6f, 0x64, 0x65, 0x6c, 0x2f, 0x71, 0x75, 0x61, 0x6e, 0x74, 0x5f, 0x63, 
  0x6f, 0x6e, 0x76, 0x31, 0x64, 0x5f, 0x32, 0x2f, 0x43, 0x6f, 0x6e, 0x76, 
  0x31, 0x44, 0x2f, 0x53, 0x71, 0x75, 0x65, 0x65, 0x7a, 0x65, 0x3b, 0x6d, 
  0x6f, 0x64, 0x65, 0x6c, 0x2f, 0x71, 0x75, 0x61, 0x6e, 0x74, 0x5f, 0x63, 
  0x6f, 0x6e, 0x76, 0x31, 0x64, 0x5f, 0x32, 0x2f, 0x42, 0x69, 0x61, 0x73, 
  0x41, 0x64, 0x64, 0x2f, 0x52, 0x65, 0x61, 0x64, 0x56, 0x61, 0x72, 0x69, 
  0x61, 0x62, 0x6c, 0x65, 0x4f, 0x70, 0x00, 0x00, 0x03, 0x00, 0x00, 0x00, 
  0x01, 0x00, 0x00, 0x00, 0x20, 0x00, 0x00, 0x00, 0x20, 0x00, 0x00, 0x00, 
  0x96, 0xe7, 0xff, 0xff, 0x00, 0x00, 0x00, 0x01, 0x18, 0x00, 0x00, 0x00, 
  0x28, 0x00, 0x00, 0x00, 0x44, 0x00, 0x00, 0x00, 0x2b, 0x00, 0x00, 0x00, 
  0x00, 0x00, 0x00, 0x09, 0xe0, 0x00, 0x00, 0x00, 0x04, 0x00, 0x00, 0x00, 
  0xff, 0xff, 0xff, 0xff, 0x01, 0x00, 0x00, 0x00, 0x20, 0x00, 0x00, 0x00, 
  0x20, 0x00, 0x00, 0x00, 0x84, 0xe7, 0xff, 0xff, 0x08, 0x00, 0x00, 0x00, 
  0x10, 0x00, 0x00, 0x00, 0x01, 0x00, 0x00, 0x00, 0x00, 0x00, 0x00, 0x00, 
  0x00, 0x00, 0x00, 0x00, 0x01, 0x00, 0x00, 0x00, 0x94, 0x42, 0xfa, 0x3d, 
  0xa3, 0x00, 0x00, 0x00, 0x6d, 0x6f, 0x64, 0x65, 0x6c, 0x2f, 0x71, 0x75, 
  0x61, 0x6e, 0x74, 0x5f, 0x63, 0x6f, 0x6e, 0x76, 0x31, 0x64, 0x5f, 0x32, 
  0x2f, 0x52, 0x65, 0x6c, 0x75, 0x3b, 0x6d, 0x6f, 0x64, 0x65, 0x6c, 0x2f, 
  0x71, 0x75, 0x61, 0x6e, 0x74, 0x5f, 0x63, 0x6f, 0x6e, 0x76, 0x31, 0x64, 
  0x5f, 0x32, 0x2f, 0x42, 0x69, 0x61, 0x73, 0x41, 0x64, 0x64, 0x3b, 0x6d, 
  0x6f, 0x64, 0x65, 0x6c, 0x2f, 0x71, 0x75, 0x61, 0x6e, 0x74, 0x5f, 0x63, 
  0x6f, 0x6e, 0x76, 0x31, 0x64, 0x5f, 0x32, 0x2f, 0x43, 0x6f, 0x6e, 0x76, 
  0x31, 0x44, 0x2f, 0x53, 0x71, 0x75, 0x65, 0x65, 0x7a, 0x65, 0x3b, 0x6d, 
  0x6f, 0x64, 0x65, 0x6c, 0x2f, 0x71, 0x75, 0x61, 0x6e, 0x74, 0x5f, 0x63, 
  0x6f, 0x6e, 0x76, 0x31, 0x64, 0x5f, 0x32, 0x2f, 0x42, 0x69, 0x61, 0x73, 
  0x41, 0x64, 0x64, 0x2f, 0x52, 0x65, 0x61, 0x64, 0x56, 0x61, 0x72, 0x69, 
  0x61, 0x62, 0x6c, 0x65, 0x4f, 0x70, 0x3b, 0x6d, 0x6f, 0x64, 0x65, 0x6c, 
  0x2f, 0x71, 0x75, 0x61, 0x6e, 0x74, 0x5f, 0x63, 0x6f, 0x6e, 0x76, 0x31, 
  0x64, 0x5f, 0x32, 0x2f, 0x43, 0x6f, 0x6e, 0x76, 0x31, 0x44, 0x31, 0x00, 
  0x04, 0x00, 0x00, 0x00, 0x01, 0x00, 0x00, 0x00, 0x01, 0x00, 0x00, 0x00, 
  0x20, 0x00, 0x00, 0x00, 0x20, 0x00, 0x00, 0x00, 0xfa, 0xe8, 0xff, 0xff, 
  0x00, 0x00, 0x00, 0x01, 0x14, 0x00, 0x00, 0x00, 0x30, 0x00, 0x00, 0x00, 
  0x2a, 0x00, 0x00, 0x00, 0x00, 0x00, 0x00, 0x09, 0x44, 0x00, 0x00, 0x00, 
  0x7c, 0xe8, 0xff, 0xff, 0x08, 0x00, 0x00, 0x00, 0x10, 0x00, 0x00, 0x00, 
  0x01, 0x00, 0x00, 0x00, 0x00, 0x00, 0x00, 0x00, 0x00, 0x00, 0x00, 0x00, 
  0x01, 0x00, 0x00, 0x00, 0x2b, 0x2b, 0x91, 0x3b, 0x1b, 0x00, 0x00, 0x00, 
  0x6d, 0x6f, 0x64, 0x65, 0x6c, 0x2f, 0x71, 0x75, 0x61, 0x6e, 0x74, 0x5f, 
  0x63, 0x6f, 0x6e, 0x76, 0x31, 0x64, 0x5f, 0x32, 0x2f, 0x43, 0x6f, 0x6e, 
  0x76, 0x31, 0x44, 0x00, 0x04, 0x00, 0x00, 0x00, 0x20, 0x00, 0x00, 0x00, 
  0x01, 0x00, 0x00, 0x00, 0x03, 0x00, 0x00, 0x00, 0x10, 0x00, 0x00, 0x00, 
  0x16, 0xe9, 0xff, 0xff, 0x00, 0x00, 0x00, 0x01, 0x18, 0x00, 0x00, 0x00, 
  0x28, 0x00, 0x00, 0x00, 0x44, 0x00, 0x00, 0x00, 0x29, 0x00, 0x00, 0x00, 
  0x00, 0x00, 0x00, 0x09, 0x64, 0x00, 0x00, 0x00, 0x04, 0x00, 0x00, 0x00, 
  0xff, 0xff, 0xff, 0xff, 0x01, 0x00, 0x00, 0x00, 0x20, 0x00, 0x00, 0x00, 
  0x10, 0x00, 0x00, 0x00, 0x04, 0xe9, 0xff, 0xff, 0x08, 0x00, 0x00, 0x00, 
  0x10, 0x00, 0x00, 0x00, 0x01, 0x00, 0x00, 0x00, 0x93, 0xff, 0xff, 0xff, 
  0xff, 0xff, 0xff, 0xff, 0x01, 0x00, 0x00, 0x00, 0x17, 0xb0, 0x46, 0x3e, 
  0x26, 0x00, 0x00, 0x00, 0x6d, 0x6f, 0x64, 0x65, 0x6c, 0x2f, 0x71, 0x75, 
  0x61, 0x6e, 0x74, 0x5f, 0x63, 0x6f, 0x6e, 0x76, 0x31, 0x64, 0x5f, 0x32, 
  0x2f, 0x43, 0x6f, 0x6e, 0x76, 0x31, 0x44, 0x2f, 0x45, 0x78, 0x70, 0x61, 
  0x6e, 0x64, 0x44, 0x69, 0x6d, 0x73, 0x00, 0x00, 0x04, 0x00, 0x00, 0x00, 
  0x01, 0x00, 0x00, 0x00, 0x01, 0x00, 0x00, 0x00, 0x20, 0x00, 0x00, 0x00, 
  0x10, 0x00, 0x00, 0x00, 0xaa, 0xe9, 0xff, 0xff, 0x00, 0x00, 0x00, 0x01, 
  0x18, 0x00, 0x00, 0x00, 0x24, 0x00, 0x00, 0x00, 0x40, 0x00, 0x00, 0x00, 
  0x28, 0x00, 0x00, 0x00, 0x00, 0x00, 0x00, 0x09, 0x58, 0x00, 0x00, 0x00, 
  0x03, 0x00, 0x00, 0x00, 0xff, 0xff, 0xff, 0xff, 0x20, 0x00, 0x00, 0x00, 
  0x10, 0x00, 0x00, 0x00, 0x94, 0xe9, 0xff, 0xff, 0x08, 0x00, 0x00, 0x00, 
  0x10, 0x00, 0x00, 0x00, 0x01, 0x00, 0x00, 0x00, 0x93, 0xff, 0xff, 0xff, 
  0xff, 0xff, 0xff, 0xff, 0x01, 0x00, 0x00, 0x00, 0x17, 0xb0, 0x46, 0x3e, 
  0x1e, 0x00, 0x00, 0x00, 0x6d, 0x6f, 0x64, 0x65, 0x6c, 0x2f, 0x6d, 0x61, 
  0x78, 0x5f, 0x70, 0x6f, 0x6f, 0x6c, 0x69, 0x6e, 0x67, 0x31, 0x64, 0x5f, 
  0x31, 0x2f, 0x53, 0x71, 0x75, 0x65, 0x65, 0x7a, 0x65, 0x31, 0x00, 0x00, 
  0x03, 0x00, 0x00, 0x00, 0x01, 0x00, 0x00, 0x00, 0x20, 0x00, 0x00, 0x00, 
  0x10, 0x00, 0x00, 0x00, 0x2e, 0xea, 0xff, 0xff, 0x00, 0x00, 0x00, 0x01, 
  0x18, 0x00, 0x00, 0x00, 0x28, 0x00, 0x00, 0x00, 0x48, 0x00, 0x00, 0x00, 
  0x27, 0x00, 0x00, 0x00, 0x00, 0x00, 0x00, 0x09, 0x60, 0x00, 0x00, 0x00, 
  0x04, 0x00, 0x00, 0x00, 0xff, 0xff, 0xff, 0xff, 0x20, 0x00, 0x00, 0x00, 
  0x01, 0x00, 0x00, 0x00, 0x10, 0x00, 0x00, 0x00, 0x1c, 0xea, 0xff, 0xff, 
  0x08, 0x00, 0x00, 0x00, 0x14, 0x00, 0x00, 0x00, 0x01, 0x00, 0x00, 0x00, 
  0x93, 0xff, 0xff, 0xff, 0xff, 0xff, 0xff, 0xff, 0x00, 0x00, 0x00, 0x00, 
  0x01, 0x00, 0x00, 0x00, 0x17, 0xb0, 0x46, 0x3e, 0x1d, 0x00, 0x00, 0x00, 
  0x6d, 0x6f, 0x64, 0x65, 0x6c, 0x2f, 0x6d, 0x61, 0x78, 0x5f, 0x70, 0x6f, 
  0x6f, 0x6c, 0x69, 0x6e, 0x67, 0x31, 0x64, 0x5f, 0x31, 0x2f, 0x4d, 0x61, 
  0x78, 0x50, 0x6f, 0x6f, 0x6c, 0x00, 0x00, 0x00, 0x04, 0x00, 0x00, 0x00, 
  0x01, 0x00, 0x00, 0x00, 0x20, 0x00, 0x00, 0x00, 0x01, 0x00, 0x00, 0x00, 
  0x10, 0x00, 0x00, 0x00, 0xbe, 0xea, 0xff, 0xff, 0x00, 0x00, 0x00, 0x01, 
  0x18, 0x00, 0x00, 0x00, 0x28, 0x00, 0x00, 0x00, 0x48, 0x00, 0x00, 0x00, 
  0x26, 0x00, 0x00, 0x00, 0x00, 0x00, 0x00, 0x09, 0x64, 0x00, 0x00, 0x00, 
  0x04, 0x00, 0x00, 0x00, 0xff, 0xff, 0xff, 0xff, 0x80, 0x00, 0x00, 0x00, 
  0x01, 0x00, 0x00, 0x00, 0x10, 0x00, 0x00, 0x00, 0xac, 0xea, 0xff, 0xff, 
  0x08, 0x00, 0x00, 0x00, 0x14, 0x00, 0x00, 0x00, 0x01, 0x00, 0x00, 0x00, 
  0x93, 0xff, 0xff, 0xff, 0xff, 0xff, 0xff, 0xff, 0x00, 0x00, 0x00, 0x00, 
  0x01, 0x00, 0x00, 0x00, 0x17, 0xb0, 0x46, 0x3e, 0x20, 0x00, 0x00, 0x00, 
  0x6d, 0x6f, 0x64, 0x65, 0x6c, 0x2f, 0x6d, 0x61, 0x78, 0x5f, 0x70, 0x6f, 
  0x6f, 0x6c, 0x69, 0x6e, 0x67, 0x31, 0x64, 0x5f, 0x31, 0x2f, 0x45, 0x78, 
  0x70, 0x61, 0x6e, 0x64, 0x44, 0x69, 0x6d, 0x73, 0x00, 0x00, 0x00, 0x00, 
  0x04, 0x00, 0x00, 0x00, 0x01, 0x00, 0x00, 0x00, 0x80, 0x00, 0x00, 0x00, 
  0x01, 0x00, 0x00, 0x00, 0x10, 0x00, 0x00, 0x00, 0x52, 0xeb, 0xff, 0xff, 
  0x00, 0x00, 0x00, 0x01, 0x18, 0x00, 0x00, 0x00, 0x24, 0x00, 0x00, 0x00, 
  0x40, 0x00, 0x00, 0x00, 0x25, 0x00, 0x00, 0x00, 0x00, 0x00, 0x00, 0x09, 
  0x64, 0x00, 0x00, 0x00, 0x03, 0x00, 0x00, 0x00, 0xff, 0xff, 0xff, 0xff, 
  0x80, 0x00, 0x00, 0x00, 0x10, 0x00, 0x00, 0x00, 0x3c, 0xeb, 0xff, 0xff, 
  0x08, 0x00, 0x00, 0x00, 0x10, 0x00, 0x00, 0x00, 0x01, 0x00, 0x00, 0x00, 
  0x93, 0xff, 0xff, 0xff, 0xff, 0xff, 0xff, 0xff, 0x01, 0x00, 0x00, 0x00, 
  0x17, 0xb0, 0x46, 0x3e, 0x2b, 0x00, 0x00, 0x00, 0x6d, 0x6f, 0x64, 0x65, 
  0x6c, 0x2f, 0x62, 0x61, 0x74, 0x63, 0x68, 0x5f, 0x6e, 0x6f, 0x72, 0x6d, 
  0x61, 0x6c, 0x69, 0x7a, 0x61, 0x74, 0x69, 0x6f, 0x6e, 0x5f, 0x31, 0x2f, 
  0x62, 0x61, 0x74, 0x63, 0x68, 0x6e, 0x6f, 0x72, 0x6d, 0x2f, 0x61, 0x64, 
  0x64, 0x5f, 0x31, 0x00, 0x03, 0x00, 0x00, 0x00, 0x01, 0x00, 0x00, 0x00, 
  0x80, 0x00, 0x00, 0x00, 0x10, 0x00, 0x00, 0x00, 0xe2, 0xeb, 0xff, 0xff, 
  0x00, 0x00, 0x00, 0x01, 0x18, 0x00, 0x00, 0x00, 0x24, 0x00, 0x00, 0x00, 
  0x40, 0x00, 0x00, 0x00, 0x24, 0x00, 0x00, 0x00, 0x00, 0x00, 0x00, 0x09, 
  0x64, 0x00, 0x00, 0x00, 0x03, 0x00, 0x00, 0x00, 0xff, 0xff, 0xff, 0xff, 
  0x80, 0x00, 0x00, 0x00, 0x10, 0x00, 0x00, 0x00, 0xcc, 0xeb, 0xff, 0xff, 
  0x08, 0x00, 0x00, 0x00, 0x10, 0x00, 0x00, 0x00, 0x01, 0x00, 0x00, 0x00, 
  0x93, 0xff, 0xff, 0xff, 0xff, 0xff, 0xff, 0xff, 0x01, 0x00, 0x00, 0x00, 
  0x17, 0xb0, 0x46, 0x3e, 0x2b, 0x00, 0x00, 0x00, 0x6d, 0x6f, 0x64, 0x65, 
  0x6c, 0x2f, 0x62, 0x61, 0x74, 0x63, 0x68, 0x5f, 0x6e, 0x6f, 0x72, 0x6d, 
  0x61, 0x6c, 0x69, 0x7a, 0x61, 0x74, 0x69, 0x6f, 0x6e, 0x5f, 0x31, 0x2f, 
  0x62, 0x61, 0x74, 0x63, 0x68, 0x6e, 0x6f, 0x72, 0x6d, 0x2f, 0x6d, 0x75, 
  0x6c, 0x5f, 0x31, 0x00, 0x03, 0x00, 0x00, 0x00, 0x01, 0x00, 0x00, 0x00, 
  0x80, 0x00, 0x00, 0x00, 0x10, 0x00, 0x00, 0x00, 0x72, 0xec, 0xff, 0xff, 
  0x00, 0x00, 0x00, 0x01, 0x18, 0x00, 0x00, 0x00, 0x24, 0x00, 0x00, 0x00, 
  0x40, 0x00, 0x00, 0x00, 0x23, 0x00, 0x00, 0x00, 0x00, 0x00, 0x00, 0x09, 
  0xc0, 0x00, 0x00, 0x00, 0x03, 0x00, 0x00, 0x00, 0xff, 0xff, 0xff, 0xff, 
  0x80, 0x00, 0x00, 0x00, 0x10, 0x00, 0x00, 0x00, 0x5c, 0xec, 0xff, 0xff, 
  0x08, 0x00, 0x00, 0x00, 0x10, 0x00, 0x00, 0x00, 0x01, 0x00, 0x00, 0x00, 
  0x00, 0x00, 0x00, 0x00, 0x00, 0x00, 0x00, 0x00, 0x01, 0x00, 0x00, 0x00, 
  0x33, 0x15, 0xd9, 0x3d, 0x86, 0x00, 0x00, 0x00, 0x6d, 0x6f, 0x64, 0x65, 
  0x6c, 0x2f, 0x71, 0x75, 0x61, 0x6e, 0x74, 0x5f, 0x63, 0x6f, 0x6e, 0x76, 
  0x31, 0x64, 0x5f, 0x31, 0x2f, 0x52, 0x65, 0x6c, 0x75, 0x3b, 0x6d, 0x6f, 
  0x64, 0x65, 0x6c, 0x2f, 0x71, 0x75, 0x61, 0x6e, 0x74, 0x5f, 0x63, 0x6f, 
  0x6e, 0x76, 0x31, 0x64, 0x5f, 0x31, 0x2f, 0x42, 0x69, 0x61, 0x73, 0x41, 
  0x64, 0x64, 0x3b, 0x6d, 0x6f, 0x64, 0x65, 0x6c, 0x2f, 0x71, 0x75, 0x61, 
  0x6e, 0x74, 0x5f, 0x63, 0x6f, 0x6e, 0x76, 0x31, 0x64, 0x5f, 0x31, 0x2f, 
  0x43, 0x6f, 0x6e, 0x76, 0x31, 0x44, 0x2f, 0x53, 0x71, 0x75, 0x65, 0x65, 
  0x7a, 0x65, 0x3b, 0x6d, 0x6f, 0x64, 0x65, 0x6c, 0x2f, 0x71, 0x75, 0x61, 
  0x6e, 0x74, 0x5f, 0x63, 0x6f, 0x6e, 0x76, 0x31, 0x64, 0x5f, 0x31, 0x2f, 
  0x42, 0x69, 0x61, 0x73, 0x41, 0x64, 0x64, 0x2f, 0x52, 0x65, 0x61, 0x64, 
  0x56, 0x61, 0x72, 0x69, 0x61, 0x62, 0x6c, 0x65, 0x4f, 0x70, 0x00, 0x00, 
  0x03, 0x00, 0x00, 0x00, 0x01, 0x00, 0x00, 0x00, 0x80, 0x00, 0x00, 0x00, 
  0x10, 0x00, 0x00, 0x00, 0x5e, 0xed, 0xff, 0xff, 0x00, 0x00, 0x00, 0x01, 
  0x18, 0x00, 0x00, 0x00, 0x28, 0x00, 0x00, 0x00, 0x44, 0x00, 0x00, 0x00, 
  0x22, 0x00, 0x00, 0x00, 0x00, 0x00, 0x00, 0x09, 0xe0, 0x00, 0x00, 0x00, 
  0x04, 0x00, 0x00, 0x00, 0xff, 0xff, 0xff, 0xff, 0x01, 0x00, 0x00, 0x00, 
  0x80, 0x00, 0x00, 0x00, 0x10, 0x00, 0x00, 0x00, 0x4c, 0xed, 0xff, 0xff, 
  0x08, 0x00, 0x00, 0x00, 0x10, 0x00, 0x00, 0x00, 0x01, 0x00, 0x00, 0x00, 
  0x00, 0x00, 0x00, 0x00, 0x00, 0x00, 0x00, 0x00, 0x01, 0x00, 0x00, 0x00, 
  0x33, 0x15, 0xd9, 0x3d, 0xa3, 0x00, 0x00, 0x00, 0x6d, 0x6f, 0x64, 0x65, 
  0x6c, 0x2f, 0x71, 0x75, 0x61, 0x6e, 0x74, 0x5f, 0x63, 0x6f, 0x6e, 0x76, 
  0x31, 0x64, 0x5f, 0x31, 0x2f, 0x52, 0x65, 0x6c, 0x75, 0x3b, 0x6d, 0x6f, 
  0x64, 0x65, 0x6c, 0x2f, 0x71, 0x75, 0x61, 0x6e, 0x74, 0x5f, 0x63, 0x6f, 
  0x6e, 0x76, 0x31, 0x64, 0x5f, 0x31, 0x2f, 0x42, 0x69, 0x61, 0x73, 0x41, 
  0x64, 0x64, 0x3b, 0x6d, 0x6f, 0x64, 0x65, 0x6c, 0x2f, 0x71, 0x75, 0x61, 
  0x6e, 0x74, 0x5f, 0x63, 0x6f, 0x6e, 0x76, 0x31, 0x64, 0x5f, 0x31, 0x2f, 
  0x43, 0x6f, 0x6e, 0x76, 0x31, 0x44, 0x2f, 0x53, 0x71, 0x75, 0x65, 0x65, 
  0x7a, 0x65, 0x3b, 0x6d, 0x6f, 0x64, 0x65, 0x6c, 0x2f, 0x71, 0x75, 0x61, 
  0x6e, 0x74, 0x5f, 0x63, 0x6f, 0x6e, 0x76, 0x31, 0x64, 0x5f, 0x31, 0x2f, 
  0x42, 0x69, 0x61, 0x73, 0x41, 0x64, 0x64, 0x2f, 0x52, 0x65, 0x61, 0x64, 
  0x56, 0x61, 0x72, 0x69, 0x61, 0x62, 0x6c, 0x65, 0x4f, 0x70, 0x3b, 0x6d, 
  0x6f, 0x64, 0x65, 0x6c, 0x2f, 0x71, 0x75, 0x61, 0x6e, 0x74, 0x5f, 0x63, 
  0x6f, 0x6e, 0x76, 0x31, 0x64, 0x5f, 0x31, 0x2f, 0x43, 0x6f, 0x6e, 0x76, 
  0x31, 0x44, 0x31, 0x00, 0x04, 0x00, 0x00, 0x00, 0x01, 0x00, 0x00, 0x00, 
  0x01, 0x00, 0x00, 0x00, 0x80, 0x00, 0x00, 0x00, 0x10, 0x00, 0x00, 0x00, 
  0xc2, 0xee, 0xff, 0xff, 0x00, 0x00, 0x00, 0x01, 0x14, 0x00, 0x00, 0x00, 
  0x30, 0x00, 0x00, 0x00, 0x21, 0x00, 0x00, 0x00, 0x00, 0x00, 0x00, 0x09, 
  0x44, 0x00, 0x00, 0x00, 0x44, 0xee, 0xff, 0xff, 0x08, 0x00, 0x00, 0x00, 
  0x10, 0x00, 0x00, 0x00, 0x01, 0x00, 0x00, 0x00, 0x00, 0x00, 0x00, 0x00, 
  0x00, 0x00, 0x00, 0x00, 0x01, 0x00, 0x00, 0x00, 0xef, 0x19, 0x81, 0x3b, 
  0x1b, 0x00, 0x00, 0x00, 0x6d, 0x6f, 0x64, 0x65, 0x6c, 0x2f, 0x71, 0x75, 
  0x61, 0x6e, 0x74, 0x5f, 0x63, 0x6f, 0x6e, 0x76, 0x31, 0x64, 0x5f, 0x31, 
  0x2f, 0x43, 0x6f, 0x6e, 0x76, 0x31, 0x44, 0x00, 0x04, 0x00, 0x00, 0x00, 
  0x10, 0x00, 0x00, 0x00, 0x01, 0x00, 0x00, 0x00, 0x03, 0x00, 0x00, 0x00, 
  0x08, 0x00, 0x00, 0x00, 0xde, 0xee, 0xff, 0xff, 0x00, 0x00, 0x00, 0x01, 
  0x18, 0x00, 0x00, 0x00, 0x28, 0x00, 0x00, 0x00, 0x44, 0x00, 0x00, 0x00, 
  0x20, 0x00, 0x00, 0x00, 0x00, 0x00, 0x00, 0x09, 0x64, 0x00, 0x00, 0x00, 
  0x04, 0x00, 0x00, 0x00, 0xff, 0xff, 0xff, 0xff, 0x01, 0x00, 0x00, 0x00, 
  0x80, 0x00, 0x00, 0x00, 0x08, 0x00, 0x00, 0x00, 0xcc, 0xee, 0xff, 0xff, 
  0x08, 0x00, 0x00, 0x00, 0x10, 0x00, 0x00, 0x00, 0x01, 0x00, 0x00, 0x00, 
  0xa6, 0xff, 0xff, 0xff, 0xff, 0xff, 0xff, 0xff, 0x01, 0x00, 0x00, 0x00, 
  0xdc, 0x83, 0x4e, 0x3d, 0x26, 0x00, 0x00, 0x00, 0x6d, 0x6f, 0x64, 0x65, 
  0x6c, 0x2f, 0x71, 0x75, 0x61, 0x6e, 0x74, 0x5f, 0x63, 0x6f, 0x6e, 0x76, 
  0x31, 0x64, 0x5f, 0x31, 0x2f, 0x43, 0x6f, 0x6e, 0x76, 0x31, 0x44, 0x2f, 
  0x45, 0x78, 0x70, 0x61, 0x6e, 0x64, 0x44, 0x69, 0x6d, 0x73, 0x00, 0x00, 
  0x04, 0x00, 0x00, 0x00, 0x01, 0x00, 0x00, 0x00, 0x01, 0x00, 0x00, 0x00, 
  0x80, 0x00, 0x00, 0x00, 0x08, 0x00, 0x00, 0x00, 0x72, 0xef, 0xff, 0xff, 
  0x00, 0x00, 0x00, 0x01, 0x18, 0x00, 0x00, 0x00, 0x24, 0x00, 0x00, 0x00, 
  0x40, 0x00, 0x00, 0x00, 0x1f, 0x00, 0x00, 0x00, 0x00, 0x00, 0x00, 0x09, 
  0x58, 0x00, 0x00, 0x00, 0x03, 0x00, 0x00, 0x00, 0xff, 0xff, 0xff, 0xff, 
  0x80, 0x00, 0x00, 0x00, 0x08, 0x00, 0x00, 0x00, 0x5c, 0xef, 0xff, 0xff, 
  0x08, 0x00, 0x00, 0x00, 0x10, 0x00, 0x00, 0x00, 0x01, 0x00, 0x00, 0x00, 
  0xa6, 0xff, 0xff, 0xff, 0xff, 0xff, 0xff, 0xff, 0x01, 0x00, 0x00, 0x00, 
  0xdc, 0x83, 0x4e, 0x3d, 0x1c, 0x00, 0x00, 0x00, 0x6d, 0x6f, 0x64, 0x65, 
  0x6c, 0x2f, 0x6d, 0x61, 0x78, 0x5f, 0x70, 0x6f, 0x6f, 0x6c, 0x69, 0x6e, 
  0x67, 0x31, 0x64, 0x2f, 0x53, 0x71, 0x75, 0x65, 0x65, 0x7a, 0x65, 0x31, 
  0x00, 0x00, 0x00, 0x00, 0x03, 0x00, 0x00, 0x00, 0x01, 0x00, 0x00, 0x00, 
  0x80, 0x00, 0x00, 0x00, 0x08, 0x00, 0x00, 0x00, 0xf6, 0xef, 0xff, 0xff, 
  0x00, 0x00, 0x00, 0x01, 0x18, 0x00, 0x00, 0x00, 0x28, 0x00, 0x00, 0x00, 
  0x44, 0x00, 0x00, 0x00, 0x1e, 0x00, 0x00, 0x00, 0x00, 0x00, 0x00, 0x09, 
  0x58, 0x00, 0x00, 0x00, 0x04, 0x00, 0x00, 0x00, 0xff, 0xff, 0xff, 0xff, 
  0x80, 0x00, 0x00, 0x00, 0x01, 0x00, 0x00, 0x00, 0x08, 0x00, 0x00, 0x00, 
  0xe4, 0xef, 0xff, 0xff, 0x08, 0x00, 0x00, 0x00, 0x10, 0x00, 0x00, 0x00, 
  0x01, 0x00, 0x00, 0x00, 0xa6, 0xff, 0xff, 0xff, 0xff, 0xff, 0xff, 0xff, 
  0x01, 0x00, 0x00, 0x00, 0xdc, 0x83, 0x4e, 0x3d, 0x1b, 0x00, 0x00, 0x00, 
  0x6d, 0x6f, 0x64, 0x65, 0x6c, 0x2f, 0x6d, 0x61, 0x78, 0x5f, 0x70, 0x6f, 
  0x6f, 0x6c, 0x69, 0x6e, 0x67, 0x31, 0x64, 0x2f, 0x4d, 0x61, 0x78, 0x50, 
  0x6f, 0x6f, 0x6c, 0x00, 0x04, 0x00, 0x00, 0x00, 0x01, 0x00, 0x00, 0x00, 
  0x80, 0x00, 0x00, 0x00, 0x01, 0x00, 0x00, 0x00, 0x08, 0x00, 0x00, 0x00, 
  0x7e, 0xf0, 0xff, 0xff, 0x00, 0x00, 0x00, 0x01, 0x18, 0x00, 0x00, 0x00, 
  0x28, 0x00, 0x00, 0x00, 0x44, 0x00, 0x00, 0x00, 0x1d, 0x00, 0x00, 0x00, 
  0x00, 0x00, 0x00, 0x09, 0x5c, 0x00, 0x00, 0x00, 0x04, 0x00, 0x00, 0x00, 
  0xff, 0xff, 0xff, 0xff, 0x00, 0x02, 0x00, 0x00, 0x01, 0x00, 0x00, 0x00, 
  0x08, 0x00, 0x00, 0x00, 0x6c, 0xf0, 0xff, 0xff, 0x08, 0x00, 0x00, 0x00, 
  0x10, 0x00, 0x00, 0x00, 0x01, 0x00, 0x00, 0x00, 0xa6, 0xff, 0xff, 0xff, 
  0xff, 0xff, 0xff, 0xff, 0x01, 0x00, 0x00, 0x00, 0xdc, 0x83, 0x4e, 0x3d, 
  0x1e, 0x00, 0x00, 0x00, 0x6d, 0x6f, 0x64, 0x65, 0x6c, 0x2f, 0x6d, 0x61, 
  0x78, 0x5f, 0x70, 0x6f, 0x6f, 0x6c, 0x69, 0x6e, 0x67, 0x31, 0x64, 0x2f, 
  0x45, 0x78, 0x70, 0x61, 0x6e, 0x64, 0x44, 0x69, 0x6d, 0x73, 0x00, 0x00, 
  0x04, 0x00, 0x00, 0x00, 0x01, 0x00, 0x00, 0x00, 0x00, 0x02, 0x00, 0x00, 
  0x01, 0x00, 0x00, 0x00, 0x08, 0x00, 0x00, 0x00, 0x0a, 0xf1, 0xff, 0xff, 
  0x00, 0x00, 0x00, 0x01, 0x18, 0x00, 0x00, 0x00, 0x24, 0x00, 0x00, 0x00, 
  0x40, 0x00, 0x00, 0x00, 0x1c, 0x00, 0x00, 0x00, 0x00, 0x00, 0x00, 0x09, 
  0x64, 0x00, 0x00, 0x00, 0x03, 0x00, 0x00, 0x00, 0xff, 0xff, 0xff, 0xff, 
  0x00, 0x02, 0x00, 0x00, 0x08, 0x00, 0x00, 0x00, 0xf4, 0xf0, 0xff, 0xff, 
  0x08, 0x00, 0x00, 0x00, 0x10, 0x00, 0x00, 0x00, 0x01, 0x00, 0x00, 0x00, 
  0xa6, 0xff, 0xff, 0xff, 0xff, 0xff, 0xff, 0xff, 0x01, 0x00, 0x00, 0x00, 
  0xdc, 0x83, 0x4e, 0x3d, 0x29, 0x00, 0x00, 0x00, 0x6d, 0x6f, 0x64, 0x65, 
  0x6c, 0x2f, 0x62, 0x61, 0x74, 0x63, 0x68, 0x5f, 0x6e, 0x6f, 0x72, 0x6d, 
  0x61, 0x6c, 0x69, 0x7a, 0x61, 0x74, 0x69, 0x6f, 0x6e, 0x2f, 0x62, 0x61, 
  0x74, 0x63, 0x68, 0x6e, 0x6f, 0x72, 0x6d, 0x2f, 0x61, 0x64, 0x64, 0x5f, 
  0x31, 0x00, 0x00, 0x00, 0x03, 0x00, 0x00, 0x00, 0x01, 0x00, 0x00, 0x00, 
  0x00, 0x02, 0x00, 0x00, 0x08, 0x00, 0x00, 0x00, 0x9a, 0xf1, 0xff, 0xff, 
  0x00, 0x00, 0x00, 0x01, 0x18, 0x00, 0x00, 0x00, 0x24, 0x00, 0x00, 0x00, 
  0x40, 0x00, 0x00, 0x00, 0x1b, 0x00, 0x00, 0x00, 0x00, 0x00, 0x00, 0x09, 
  0x64, 0x00, 0x00, 0x00, 0x03, 0x00, 0x00, 0x00, 0xff, 0xff, 0xff, 0xff, 
  0x00, 0x02, 0x00, 0x00, 0x08, 0x00, 0x00, 0x00, 0x84, 0xf1, 0xff, 0xff, 
  0x08, 0x00, 0x00, 0x00, 0x10, 0x00, 0x00, 0x00, 0x01, 0x00, 0x00, 0x00, 
  0xa4, 0xff, 0xff, 0xff, 0xff, 0xff, 0xff, 0xff, 0x01, 0x00, 0x00, 0x00, 
  0x5d, 0xff, 0x59, 0x3d, 0x29, 0x00, 0x00, 0x00, 0x6d, 0x6f, 0x64, 0x65, 
  0x6c, 0x2f, 0x62, 0x61, 0x74, 0x63, 0x68, 0x5f, 0x6e, 0x6f, 0x72, 0x6d, 
  0x61, 0x6c, 0x69, 0x7a, 0x61, 0x74, 0x69, 0x6f, 0x6e, 0x2f, 0x62, 0x61, 
  0x74, 0x63, 0x68, 0x6e, 0x6f, 0x72, 0x6d, 0x2f, 0x6d, 0x75, 0x6c, 0x5f, 
  0x31, 0x00, 0x00, 0x00, 0x03, 0x00, 0x00, 0x00, 0x01, 0x00, 0x00, 0x00, 
  0x00, 0x02, 0x00, 0x00, 0x08, 0x00, 0x00, 0x00, 0x2a, 0xf2, 0xff, 0xff, 
  0x00, 0x00, 0x00, 0x01, 0x18, 0x00, 0x00, 0x00, 0x24, 0x00, 0x00, 0x00, 
  0x40, 0x00, 0x00, 0x00, 0x1a, 0x00, 0x00, 0x00, 0x00, 0x00, 0x00, 0x09, 
  0xb8, 0x00, 0x00, 0x00, 0x03, 0x00, 0x00, 0x00, 0xff, 0xff, 0xff, 0xff, 
  0x00, 0x02, 0x00, 0x00, 0x08, 0x00, 0x00, 0x00, 0x14, 0xf2, 0xff, 0xff, 
  0x08, 0x00, 0x00, 0x00, 0x10, 0x00, 0x00, 0x00, 0x01, 0x00, 0x00, 0x00, 
  0x00, 0x00, 0x00, 0x00, 0x00, 0x00, 0x00, 0x00, 0x01, 0x00, 0x00, 0x00, 
  0xc2, 0x80, 0x09, 0x3c, 0x7e, 0x00, 0x00, 0x00, 0x6d, 0x6f, 0x64, 0x65, 
  0x6c, 0x2f, 0x71, 0x75, 0x61, 0x6e, 0x74, 0x5f, 0x63, 0x6f, 0x6e, 0x76, 
  0x31, 0x64, 0x2f, 0x52, 0x65, 0x6c, 0x75, 0x3b, 0x6d, 0x6f, 0x64, 0x65, 
  0x6c, 0x2f, 0x71, 0x75, 0x61, 0x6e, 0x74, 0x5f, 0x63, 0x6f, 0x6e, 0x76, 
  0x31, 0x64, 0x2f, 0x42, 0x69, 0x61, 0x73, 0x41, 0x64, 0x64, 0x3b, 0x6d, 
  0x6f, 0x64, 0x65, 0x6c, 0x2f, 0x71, 0x75, 0x61, 0x6e, 0x74, 0x5f, 0x63, 
  0x6f, 0x6e, 0x76, 0x31, 0x64, 0x2f, 0x43, 0x6f, 0x6e, 0x76, 0x31, 0x44, 
  0x2f, 0x53, 0x71, 0x75, 0x65, 0x65, 0x7a, 0x65, 0x3b, 0x6d, 0x6f, 0x64, 
  0x65, 0x6c, 0x2f, 0x71, 0x75, 0x61, 0x6e, 0x74, 0x5f, 0x63, 0x6f, 0x6e, 
  0x76, 0x31, 0x64, 0x2f, 0x42, 0x69, 0x61, 0x73, 0x41, 0x64, 0x64, 0x2f, 
  0x52, 0x65, 0x61, 0x64, 0x56, 0x61, 0x72, 0x69, 0x61, 0x62, 0x6c, 0x65, 
  0x4f, 0x70, 0x00, 0x00, 0x03, 0x00, 0x00, 0x00, 0x01, 0x00, 0x00, 0x00, 
  0x00, 0x02, 0x00, 0x00, 0x08, 0x00, 0x00, 0x00, 0x0e, 0xf3, 0xff, 0xff, 
  0x00, 0x00, 0x00, 0x01, 0x18, 0x00, 0x00, 0x00, 0x28, 0x00, 0x00, 0x00, 
  0x44, 0x00, 0x00, 0x00, 0x19, 0x00, 0x00, 0x00, 0x00, 0x00, 0x00, 0x09, 
  0xd8, 0x00, 0x00, 0x00, 0x04, 0x00, 0x00, 0x00, 0xff, 0xff, 0xff, 0xff, 
  0x01, 0x00, 0x00, 0x00, 0x00, 0x02, 0x00, 0x00, 0x08, 0x00, 0x00, 0x00, 
  0xfc, 0xf2, 0xff, 0xff, 0x08, 0x00, 0x00, 0x00, 0x10, 0x00, 0x00, 0x00, 
  0x01, 0x00, 0x00, 0x00, 0x00, 0x00, 0x00, 0x00, 0x00, 0x00, 0x00, 0x00, 
  0x01, 0x00, 0x00, 0x00, 0xc2, 0x80, 0x09, 0x3c, 0x99, 0x00, 0x00, 0x00, 
  0x6d, 0x6f, 0x64, 0x65, 0x6c, 0x2f, 0x71, 0x75, 0x61, 0x6e, 0x74, 0x5f, 
  0x63, 0x6f, 0x6e, 0x76, 0x31, 0x64, 0x2f, 0x52, 0x65, 0x6c, 0x75, 0x3b, 
  0x6d, 0x6f, 0x64, 0x65, 0x6c, 0x2f, 0x71, 0x75, 0x61, 0x6e, 0x74, 0x5f, 
  0x63, 0x6f, 0x6e, 0x76, 0x31, 0x64, 0x2f, 0x42, 0x69, 0x61, 0x73, 0x41, 
  0x64, 0x64, 0x3b, 0x6d, 0x6f, 0x64, 0x65, 0x6c, 0x2f, 0x71, 0x75, 0x61, 
  0x6e, 0x74, 0x5f, 0x63, 0x6f, 0x6e, 0x76, 0x31, 0x64, 0x2f, 0x43, 0x6f, 
  0x6e, 0x76, 0x31, 0x44, 0x2f, 0x53, 0x71, 0x75, 0x65, 0x65, 0x7a, 0x65, 
  0x3b, 0x6d, 0x6f, 0x64, 0x65, 0x6c, 0x2f, 0x71, 0x75, 0x61, 0x6e, 0x74, 
  0x5f, 0x63, 0x6f, 0x6e, 0x76, 0x31, 0x64, 0x2f, 0x42, 0x69, 0x61, 0x73, 
  0x41, 0x64, 0x64, 0x2f, 0x52, 0x65, 0x61, 0x64, 0x56, 0x61, 0x72, 0x69, 
  0x61, 0x62, 0x6c, 0x65, 0x4f, 0x70, 0x3b, 0x6d, 0x6f, 0x64, 0x65, 0x6c, 
  0x2f, 0x71, 0x75, 0x61, 0x6e, 0x74, 0x5f, 0x63, 0x6f, 0x6e, 0x76, 0x31, 
  0x64, 0x2f, 0x43, 0x6f, 0x6e, 0x76, 0x31, 0x44, 0x31, 0x00, 0x00, 0x00, 
  0x04, 0x00, 0x00, 0x00, 0x01, 0x00, 0x00, 0x00, 0x01, 0x00, 0x00, 0x00, 
  0x00, 0x02, 0x00, 0x00, 0x08, 0x00, 0x00, 0x00, 0x6a, 0xf4, 0xff, 0xff, 
  0x00, 0x00, 0x00, 0x01, 0x14, 0x00, 0x00, 0x00, 0x34, 0x00, 0x00, 0x00, 
  0x18, 0x00, 0x00, 0x00, 0x00, 0x00, 0x00, 0x02, 0xc8, 0x00, 0x00, 0x00, 
  0xec, 0xf3, 0xff, 0xff, 0x08, 0x00, 0x00, 0x00, 0x14, 0x00, 0x00, 0x00, 
  0x01, 0x00, 0x00, 0x00, 0x00, 0x00, 0x00, 0x00, 0x00, 0x00, 0x00, 0x00, 
  0x00, 0x00, 0x00, 0x00, 0x01, 0x00, 0x00, 0x00, 0x47, 0xb7, 0xbc, 0x38, 
  0x98, 0x00, 0x00, 0x00, 0x6d, 0x6f, 0x64, 0x65, 0x6c, 0x2f, 0x71, 0x75, 
  0x61, 0x6e, 0x74, 0x5f, 0x63, 0x6f, 0x6e, 0x76, 0x31, 0x64, 0x2f, 0x52, 
  0x65, 0x6c, 0x75, 0x3b, 0x6d, 0x6f, 0x64, 0x65, 0x6c, 0x2f, 0x71, 0x75, 
  0x61, 0x6e, 0x74, 0x5f, 0x63, 0x6f, 0x6e, 0x76, 0x31, 0x64, 0x2f, 0x42, 
  0x69, 0x61, 0x73, 0x41, 0x64, 0x64, 0x3b, 0x6d, 0x6f, 0x64, 0x65, 0x6c, 
  0x2f, 0x71, 0x75, 0x61, 0x6e, 0x74, 0x5f, 0x63, 0x6f, 0x6e, 0x76, 0x31, 
  0x64, 0x2f, 0x43, 0x6f, 0x6e, 0x76, 0x31, 0x44, 0x2f, 0x53, 0x71, 0x75, 
  0x65, 0x65, 0x7a, 0x65, 0x3b, 0x6d, 0x6f, 0x64, 0x65, 0x6c, 0x2f, 0x71, 
  0x75, 0x61, 0x6e, 0x74, 0x5f, 0x63, 0x6f, 0x6e, 0x76, 0x31, 0x64, 0x2f, 
  0x42, 0x69, 0x61, 0x73, 0x41, 0x64, 0x64, 0x2f, 0x52, 0x65, 0x61, 0x64, 
  0x56, 0x61, 0x72, 0x69, 0x61, 0x62, 0x6c, 0x65, 0x4f, 0x70, 0x3b, 0x6d, 
  0x6f, 0x64, 0x65, 0x6c, 0x2f, 0x71, 0x75, 0x61, 0x6e, 0x74, 0x5f, 0x63, 
  0x6f, 0x6e, 0x76, 0x31, 0x64, 0x2f, 0x43, 0x6f, 0x6e, 0x76, 0x31, 0x44, 
  0x00, 0x00, 0x00, 0x00, 0x01, 0x00, 0x00, 0x00, 0x08, 0x00, 0x00, 0x00, 
  0x52, 0xf5, 0xff, 0xff, 0x00, 0x00, 0x00, 0x01, 0x14, 0x00, 0x00, 0x00, 
  0x30, 0x00, 0x00, 0x00, 0x17, 0x00, 0x00, 0x00, 0x00, 0x00, 0x00, 0x09, 
  0x44, 0x00, 0x00, 0x00, 0xd4, 0xf4, 0xff, 0xff, 0x08, 0x00, 0x00, 0x00, 
  0x10, 0x00, 0x00, 0x00, 0x01, 0x00, 0x00, 0x00, 0x00, 0x00, 0x00, 0x00, 
  0x00, 0x00, 0x00, 0x00, 0x01, 0x00, 0x00, 0x00, 0xd7, 0x4d, 0xa2, 0x3b, 
  0x19, 0x00, 0x00, 0x00, 0x6d, 0x6f, 0x64, 0x65, 0x6c, 0x2f, 0x71, 0x75, 
  0x61, 0x6e, 0x74, 0x5f, 0x63, 0x6f, 0x6e, 0x76, 0x31, 0x64, 0x2f, 0x43, 
  0x6f, 0x6e, 0x76, 0x31, 0x44, 0x00, 0x00, 0x00, 0x04, 0x00, 0x00, 0x00, 
  0x08, 0x00, 0x00, 0x00, 0x01, 0x00, 0x00, 0x00, 0x05, 0x00, 0x00, 0x00, 
  0x01, 0x00, 0x00, 0x00, 0x6e, 0xf5, 0xff, 0xff, 0x00, 0x00, 0x00, 0x01, 
  0x18, 0x00, 0x00, 0x00, 0x28, 0x00, 0x00, 0x00, 0x48, 0x00, 0x00, 0x00, 
  0x16, 0x00, 0x00, 0x00, 0x00, 0x00, 0x00, 0x09, 0x68, 0x00, 0x00, 0x00, 
  0x04, 0x00, 0x00, 0x00, 0xff, 0xff, 0xff, 0xff, 0x01, 0x00, 0x00, 0x00, 
  0x00, 0x02, 0x00, 0x00, 0x01, 0x00, 0x00, 0x00, 0x5c, 0xf5, 0xff, 0xff, 
  0x08, 0x00, 0x00, 0x00, 0x14, 0x00, 0x00, 0x00, 0x01, 0x00, 0x00, 0x00, 
  0x17, 0x00, 0x00, 0x00, 0x00, 0x00, 0x00, 0x00, 0x00, 0x00, 0x00, 0x00, 
  0x01, 0x00, 0x00, 0x00, 0x5d, 0xd4, 0x94, 0x3c, 0x24, 0x00, 0x00, 0x00, 
  0x6d, 0x6f, 0x64, 0x65, 0x6c, 0x2f, 0x71, 0x75, 0x61, 0x6e, 0x74, 0x5f, 
  0x63, 0x6f, 0x6e, 0x76, 0x31, 0x64, 0x2f, 0x43, 0x6f, 0x6e, 0x76, 0x31, 
  0x44, 0x2f, 0x45, 0x78, 0x70, 0x61, 0x6e, 0x64, 0x44, 0x69, 0x6d, 0x73, 
  0x00, 0x00, 0x00, 0x00, 0x04, 0x00, 0x00, 0x00, 0x01, 0x00, 0x00, 0x00, 
  0x01, 0x00, 0x00, 0x00, 0x00, 0x02, 0x00, 0x00, 0x01, 0x00, 0x00, 0x00, 
  0x5a, 0xf6, 0xff, 0xff, 0x00, 0x00, 0x00, 0x01, 0x14, 0x00, 0x00, 0x00, 
  0x30, 0x00, 0x00, 0x00, 0x15, 0x00, 0x00, 0x00, 0x00, 0x00, 0x00, 0x09, 
  0x50, 0x00, 0x00, 0x00, 0xdc, 0xf5, 0xff, 0xff, 0x08, 0x00, 0x00, 0x00, 
  0x10, 0x00, 0x00, 0x00, 0x01, 0x00, 0x00, 0x00, 0x80, 0xff, 0xff, 0xff, 
  0xff, 0xff, 0xff, 0xff, 0x01, 0x00, 0x00, 0x00, 0x3d, 0x39, 0xa0, 0x3d, 
  0x27, 0x00, 0x00, 0x00, 0x6d, 0x6f, 0x64, 0x65, 0x6c, 0x2f, 0x62, 0x61, 
  0x74, 0x63, 0x68, 0x5f, 0x6e, 0x6f, 0x72, 0x6d, 0x61, 0x6c, 0x69, 0x7a, 
  0x61, 0x74, 0x69, 0x6f, 0x6e, 0x2f, 0x62, 0x61, 0x74, 0x63, 0x68, 0x6e, 
  0x6f, 0x72, 0x6d, 0x2f, 0x6d, 0x75, 0x6c, 0x00, 0x01, 0x00, 0x00, 0x00, 
  0x08, 0x00, 0x00, 0x00, 0xca, 0xf6, 0xff, 0xff, 0x00, 0x00, 0x00, 0x01, 
  0x14, 0x00, 0x00, 0x00, 0x30, 0x00, 0x00, 0x00, 0x14, 0x00, 0x00, 0x00, 
  0x00, 0x00, 0x00, 0x09, 0x50, 0x00, 0x00, 0x00, 0x4c, 0xf6, 0xff, 0xff, 
  0x08, 0x00, 0x00, 0x00, 0x10, 0x00, 0x00, 0x00, 0x01, 0x00, 0x00, 0x00, 
  0x7f, 0x00, 0x00, 0x00, 0x00, 0x00, 0x00, 0x00, 0x01, 0x00, 0x00, 0x00, 
  0x32, 0x5c, 0xf4, 0x3b, 0x27, 0x00, 0x00, 0x00, 0x6d, 0x6f, 0x64, 0x65, 
  0x6c, 0x2f, 0x62, 0x61, 0x74, 0x63, 0x68, 0x5f, 0x6e, 0x6f, 0x72, 0x6d, 
  0x61, 0x6c, 0x69, 0x7a, 0x61, 0x74, 0x69, 0x6f, 0x6e, 0x2f, 0x62, 0x61, 
  0x74, 0x63, 0x68, 0x6e, 0x6f, 0x72, 0x6d, 0x2f, 0x73, 0x75, 0x62, 0x00, 
  0x01, 0x00, 0x00, 0x00, 0x08, 0x00, 0x00, 0x00, 0x3a, 0xf7, 0xff, 0xff, 
  0x00, 0x00, 0x00, 0x01, 0x14, 0x00, 0x00, 0x00, 0x34, 0x00, 0x00, 0x00, 
  0x13, 0x00, 0x00, 0x00, 0x00, 0x00, 0x00, 0x02, 0xd0, 0x00, 0x00, 0x00, 
  0xbc, 0xf6, 0xff, 0xff, 0x08, 0x00, 0x00, 0x00, 0x14, 0x00, 0x00, 0x00, 
  0x01, 0x00, 0x00, 0x00, 0x00, 0x00, 0x00, 0x00, 0x00, 0x00, 0x00, 0x00, 
  0x00, 0x00, 0x00, 0x00, 0x01, 0x00, 0x00, 0x00, 0x30, 0x35, 0x4c, 0x39, 
  0xa2, 0x00, 0x00, 0x00, 0x6d, 0x6f, 0x64, 0x65, 0x6c, 0x2f, 0x71, 0x75, 
  0x61, 0x6e, 0x74, 0x5f, 0x63, 0x6f, 0x6e, 0x76, 0x31, 0x64, 0x5f, 0x31, 
  0x2f, 0x52, 0x65, 0x6c, 0x75, 0x3b, 0x6d, 0x6f, 0x64, 0x65, 0x6c, 0x2f, 
  0x71, 0x75, 0x61, 0x6e, 0x74, 0x5f, 0x63, 0x6f, 0x6e, 0x76, 0x31, 0x64, 
  0x5f, 0x31, 0x2f, 0x42, 0x69, 0x61, 0x73, 0x41, 0x64, 0x64, 0x3b, 0x6d, 
  0x6f, 0x64, 0x65, 0x6c, 0x2f, 0x71, 0x75, 0x61, 0x6e, 0x74, 0x5f, 0x63, 
  0x6f, 0x6e, 0x76, 0x31, 0x64, 0x5f, 0x31, 0x2f, 0x43, 0x6f, 0x6e, 0x76, 
  0x31, 0x44, 0x2f, 0x53, 0x71, 0x75, 0x65, 0x65, 0x7a, 0x65, 0x3b, 0x6d, 
  0x6f, 0x64, 0x65, 0x6c, 0x2f, 0x71, 0x75, 0x61, 0x6e, 0x74, 0x5f, 0x63, 
  0x6f, 0x6e, 0x76, 0x31, 0x64, 0x5f, 0x31, 0x2f, 0x42, 0x69, 0x61, 0x73, 
  0x41, 0x64, 0x64, 0x2f, 0x52, 0x65, 0x61, 0x64, 0x56, 0x61, 0x72, 0x69, 
  0x61, 0x62, 0x6c, 0x65, 0x4f, 0x70, 0x3b, 0x6d, 0x6f, 0x64, 0x65, 0x6c, 
  0x2f, 0x71, 0x75, 0x61, 0x6e, 0x74, 0x5f, 0x63, 0x6f, 0x6e, 0x76, 0x31, 
  0x64, 0x5f, 0x31, 0x2f, 0x43, 0x6f, 0x6e, 0x76, 0x31, 0x44, 0x00, 0x00, 
  0x01, 0x00, 0x00, 0x00, 0x10, 0x00, 0x00, 0x00, 0x2a, 0xf8, 0xff, 0xff, 
  0x00, 0x00, 0x00, 0x01, 0x14, 0x00, 0x00, 0x00, 0x34, 0x00, 0x00, 0x00, 
  0x12, 0x00, 0x00, 0x00, 0x00, 0x00, 0x00, 0x09, 0x58, 0x00, 0x00, 0x00, 
  0xac, 0xf7, 0xff, 0xff, 0x08, 0x00, 0x00, 0x00, 0x14, 0x00, 0x00, 0x00, 
  0x01, 0x00, 0x00, 0x00, 0x80, 0xff, 0xff, 0xff, 0xff, 0xff, 0xff, 0xff, 
  0x00, 0x00, 0x00, 0x00, 0x01, 0x00, 0x00, 0x00, 0x48, 0x78, 0xe0, 0x3d, 
  0x29, 0x00, 0x00, 0x00, 0x6d, 0x6f, 0x64, 0x65, 0x6c, 0x2f, 0x62, 0x61, 
  0x74, 0x63, 0x68, 0x5f, 0x6e, 0x6f, 0x72, 0x6d, 0x61, 0x6c, 0x69, 0x7a, 
  0x61, 0x74, 0x69, 0x6f, 0x6e, 0x5f, 0x31, 0x2f, 0x62, 0x61, 0x74, 0x63, 
  0x68, 0x6e, 0x6f, 0x72, 0x6d, 0x2f, 0x6d, 0x75, 0x6c, 0x00, 0x00, 0x00, 
  0x01, 0x00, 0x00, 0x00, 0x10, 0x00, 0x00, 0x00, 0xa2, 0xf8, 0xff, 0xff, 
  0x00, 0x00, 0x00, 0x01, 0x14, 0x00, 0x00, 0x00, 0x34, 0x00, 0x00, 0x00, 
  0x11, 0x00, 0x00, 0x00, 0x00, 0x00, 0x00, 0x09, 0x58, 0x00, 0x00, 0x00, 
  0x24, 0xf8, 0xff, 0xff, 0x08, 0x00, 0x00, 0x00, 0x14, 0x00, 0x00, 0x00, 
  0x01, 0x00, 0x00, 0x00, 0x75, 0x00, 0x00, 0x00, 0x00, 0x00, 0x00, 0x00, 
  0x00, 0x00, 0x00, 0x00, 0x01, 0x00, 0x00, 0x00, 0xb7, 0x3b, 0x7b, 0x3c, 
  0x29, 0x00, 0x00, 0x00, 0x6d, 0x6f, 0x64, 0x65, 0x6c, 0x2f, 0x62, 0x61, 
  0x74, 0x63, 0x68, 0x5f, 0x6e, 0x6f, 0x72, 0x6d, 0x61, 0x6c, 0x69, 0x7a, 
  0x61, 0x74, 0x69, 0x6f, 0x6e, 0x5f, 0x31, 0x2f, 0x62, 0x61, 0x74, 0x63, 
  0x68, 0x6e, 0x6f, 0x72, 0x6d, 0x2f, 0x73, 0x75, 0x62, 0x00, 0x00, 0x00, 
  0x01, 0x00, 0x00, 0x00, 0x10, 0x00, 0x00, 0x00, 0x1a, 0xf9, 0xff, 0xff, 
  0x00, 0x00, 0x00, 0x01, 0x14, 0x00, 0x00, 0x00, 0x34, 0x00, 0x00, 0x00, 
  0x10, 0x00, 0x00, 0x00, 0x00, 0x00, 0x00, 0x02, 0xd0, 0x00, 0x00, 0x00, 
  0x9c, 0xf8, 0xff, 0xff, 0x08, 0x00, 0x00, 0x00, 0x14, 0x00, 0x00, 0x00, 
  0x01, 0x00, 0x00, 0x00, 0x00, 0x00, 0x00, 0x00, 0x00, 0x00, 0x00, 0x00, 
  0x00, 0x00, 0x00, 0x00, 0x01, 0x00, 0x00, 0x00, 0x49, 0x98, 0x48, 0x3a, 
  0xa2, 0x00, 0x00, 0x00, 0x6d, 0x6f, 0x64, 0x65, 0x6c, 0x2f, 0x71, 0x75, 
  0x61, 0x6e, 0x74, 0x5f, 0x63, 0x6f, 0x6e, 0x76, 0x31, 0x64, 0x5f, 0x32, 
  0x2f, 0x52, 0x65, 0x6c, 0x75, 0x3b, 0x6d, 0x6f, 0x64, 0x65, 0x6c, 0x2f, 
  0x71, 0x75, 0x61, 0x6e, 0x74, 0x5f, 0x63, 0x6f, 0x6e, 0x76, 0x31, 0x64, 
  0x5f, 0x32, 0x2f, 0x42, 0x69, 0x61, 0x73, 0x41, 0x64, 0x64, 0x3b, 0x6d, 
  0x6f, 0x64, 0x65, 0x6c, 0x2f, 0x71, 0x75, 0x61, 0x6e, 0x74, 0x5f, 0x63, 
  0x6f, 0x6e, 0x76, 0x31, 0x64, 0x5f, 0x32, 0x2f, 0x43, 0x6f, 0x6e, 0x76, 
  0x31, 0x44, 0x2f, 0x53, 0x71, 0x75, 0x65, 0x65, 0x7a, 0x65, 0x3b, 0x6d, 
  0x6f, 0x64, 0x65, 0x6c, 0x2f, 0x71, 0x75, 0x61, 0x6e, 0x74, 0x5f, 0x63, 
  0x6f, 0x6e, 0x76, 0x31, 0x64, 0x5f, 0x32, 0x2f, 0x42, 0x69, 0x61, 0x73, 
  0x41, 0x64, 0x64, 0x2f, 0x52, 0x65, 0x61, 0x64, 0x56, 0x61, 0x72, 0x69, 
  0x61, 0x62, 0x6c, 0x65, 0x4f, 0x70, 0x3b, 0x6d, 0x6f, 0x64, 0x65, 0x6c, 
  0x2f, 0x71, 0x75, 0x61, 0x6e, 0x74, 0x5f, 0x63, 0x6f, 0x6e, 0x76, 0x31, 
  0x64, 0x5f, 0x32, 0x2f, 0x43, 0x6f, 0x6e, 0x76, 0x31, 0x44, 0x00, 0x00, 
  0x01, 0x00, 0x00, 0x00, 0x20, 0x00, 0x00, 0x00, 0x0a, 0xfa, 0xff, 0xff, 
  0x00, 0x00, 0x00, 0x01, 0x14, 0x00, 0x00, 0x00, 0x34, 0x00, 0x00, 0x00, 
  0x0f, 0x00, 0x00, 0x00, 0x00, 0x00, 0x00, 0x09, 0x58, 0x00, 0x00, 0x00, 
  0x8c, 0xf9, 0xff, 0xff, 0x08, 0x00, 0x00, 0x00, 0x14, 0x00, 0x00, 0x00, 
  0x01, 0x00, 0x00, 0x00, 0x80, 0xff, 0xff, 0xff, 0xff, 0xff, 0xff, 0xff, 
  0x00, 0x00, 0x00, 0x00, 0x01, 0x00, 0x00, 0x00, 0x07, 0x34, 0xbc, 0x3c, 
  0x29, 0x00, 0x00, 0x00, 0x6d, 0x6f, 0x64, 0x65, 0x6c, 0x2f, 0x62, 0x61, 
  0x74, 0x63, 0x68, 0x5f, 0x6e, 0x6f, 0x72, 0x6d, 0x61, 0x6c, 0x69, 0x7a, 
  0x61, 0x74, 0x69, 0x6f, 0x6e, 0x5f, 0x32, 0x2f, 0x62, 0x61, 0x74, 0x63, 
  0x68, 0x6e, 0x6f, 0x72, 0x6d, 0x2f, 0x6d, 0x75, 0x6c, 0x00, 0x00, 0x00, 
  0x01, 0x00, 0x00, 0x00, 0x20, 0x00, 0x00, 0x00, 0x82, 0xfa, 0xff, 0xff, 
  0x00, 0x00, 0x00, 0x01, 0x14, 0x00, 0x00, 0x00, 0x34, 0x00, 0x00, 0x00, 
  0x0e, 0x00, 0x00, 0x00, 0x00, 0x00, 0x00, 0x09, 0x58, 0x00, 0x00, 0x00, 
  0x04, 0xfa, 0xff, 0xff, 0x08, 0x00, 0x00, 0x00, 0x14, 0x00, 0x00, 0x00, 
  0x01, 0x00, 0x00, 0x00, 0x7f, 0x00, 0x00, 0x00, 0x00, 0x00, 0x00, 0x00, 
  0x00, 0x00, 0x00, 0x00, 0x01, 0x00, 0x00, 0x00, 0x77, 0x79, 0xd7, 0x3b, 
  0x29, 0x00, 0x00, 0x00, 0x6d, 0x6f, 0x64, 0x65, 0x6c, 0x2f, 0x62, 0x61, 
  0x74, 0x63, 0x68, 0x5f, 0x6e, 0x6f, 0x72, 0x6d, 0x61, 0x6c, 0x69, 0x7a, 
  0x61, 0x74, 0x69, 0x6f, 0x6e, 0x5f, 0x32, 0x2f, 0x62, 0x61, 0x74, 0x63, 
  0x68, 0x6e, 0x6f, 0x72, 0x6d, 0x2f, 0x73, 0x75, 0x62, 0x00, 0x00, 0x00, 
  0x01, 0x00, 0x00, 0x00, 0x20, 0x00, 0x00, 0x00, 0xfa, 0xfa, 0xff, 0xff, 
  0x00, 0x00, 0x00, 0x01, 0x14, 0x00, 0x00, 0x00, 0xe8, 0x00, 0x00, 0x00, 
  0x0d, 0x00, 0x00, 0x00, 0x00, 0x00, 0x00, 0x09, 0xf4, 0x00, 0x00, 0x00, 
  0x7c, 0xfa, 0xff, 0xff, 0x08, 0x00, 0x00, 0x00, 0x8c, 0x00, 0x00, 0x00, 
  0x10, 0x00, 0x00, 0x00, 0x00, 0x00, 0x00, 0x00, 0x00, 0x00, 0x00, 0x00, 
  0x00, 0x00, 0x00, 0x00, 0x00, 0x00, 0x00, 0x00, 0x00, 0x00, 0x00, 0x00, 
  0x00, 0x00, 0x00, 0x00, 0x00, 0x00, 0x00, 0x00, 0x00, 0x00, 0x00, 0x00, 
  0x00, 0x00, 0x00, 0x00, 0x00, 0x00, 0x00, 0x00, 0x00, 0x00, 0x00, 0x00, 
  0x00, 0x00, 0x00, 0x00, 0x00, 0x00, 0x00, 0x00, 0x00, 0x00, 0x00, 0x00, 
  0x00, 0x00, 0x00, 0x00, 0x00, 0x00, 0x00, 0x00, 0x00, 0x00, 0x00, 0x00, 
  0x00, 0x00, 0x00, 0x00, 0x00, 0x00, 0x00, 0x00, 0x00, 0x00, 0x00, 0x00, 
  0x00, 0x00, 0x00, 0x00, 0x00, 0x00, 0x00, 0x00, 0x00, 0x00, 0x00, 0x00, 
  0x00, 0x00, 0x00, 0x00, 0x00, 0x00, 0x00, 0x00, 0x00, 0x00, 0x00, 0x00, 
  0x00, 0x00, 0x00, 0x00, 0x00, 0x00, 0x00, 0x00, 0x00, 0x00, 0x00, 0x00, 
  0x00, 0x00, 0x00, 0x00, 0x00, 0x00, 0x00, 0x00, 0x00, 0x00, 0x00, 0x00, 
  0x00, 0x00, 0x00, 0x00, 0x10, 0x00, 0x00, 0x00, 0xeb, 0x62, 0x7f, 0x3b, 
  0xe5, 0x7e, 0x5b, 0x3b, 0xcd, 0xf5, 0x96, 0x3b, 0x2d, 0x5d, 0x70, 0x3b, 
  0xc7, 0x49, 0x8f, 0x3b, 0x97, 0x12, 0x80, 0x3b, 0x61, 0x60, 0x89, 0x3b, 
  0x73, 0x90, 0x64, 0x3b, 0xa7, 0x3f, 0x55, 0x3b, 0x7b, 0xe6, 0xbd, 0x3b, 
  0x9d, 0x58, 0x2c, 0x3b, 0xca, 0x71, 0x6e, 0x3b, 0xcc, 0x1f, 0x51, 0x3b, 
  0xa0, 0x10, 0x62, 0x3b, 0xd1, 0x7f, 0x64, 0x3b, 0x20, 0x72, 0x9f, 0x3b, 
  0x12, 0x00, 0x00, 0x00, 0x6d, 0x6f, 0x64, 0x65, 0x6c, 0x2f, 0x64, 0x65, 
  0x6e, 0x73, 0x65, 0x2f, 0x4d, 0x61, 0x74, 0x4d, 0x75, 0x6c, 0x00, 0x00, 
  0x02, 0x00, 0x00, 0x00, 0x10, 0x00, 0x00, 0x00, 0x00, 0x01, 0x00, 0x00, 
  0x12, 0xfc, 0xff, 0xff, 0x00, 0x00, 0x00, 0x01, 0x14, 0x00, 0x00, 0x00, 
  0xe8, 0x00, 0x00, 0x00, 0x0c, 0x00, 0x00, 0x00, 0x00, 0x00, 0x00, 0x02, 
  0x08, 0x01, 0x00, 0x00, 0x94, 0xfb, 0xff, 0xff, 0x08, 0x00, 0x00, 0x00, 
  0x8c, 0x00, 0x00, 0x00, 0x10, 0x00, 0x00, 0x00, 0x00, 0x00, 0x00, 0x00, 
